{
  "version": "1.0",
  "truncation": null,
  "padding": null,
  "added_tokens": [
    {
      "id": 0,
      "content": "<pad>",
      "single_word": false,
      "lstrip": false,
      "rstrip": false,
      "normalized": false,
      "special": true
    },
    {
      "id": 1,
      "content": "<unk>",
      "single_word": false,
      "lstrip": false,
      "rstrip": false,
      "normalized": false,
      "special": true
    },
    {
      "id": 2,
      "content": "<bos>",
      "single_word": false,
      "lstrip": false,
      "rstrip": false,
      "normalized": false,
      "special": true
    },
    {
      "id": 3,
      "content": "<eos>",
      "single_word": false,
      "lstrip": false,
      "rstrip": false,
      "normalized": false,
      "special": true
    }
  ],
  "normalizer": {
    "type": "Sequence",
    "normalizers": [
      {
        "type": "Replace",
        "pattern": {
          "String": " "
        },
        "content": "▁"
      }
    ]
  },
  "pre_tokenizer": null,
  "post_processor": {
    "type": "TemplateProcessing",
    "single": [
      {
        "Sequence": {
          "id": "A",
          "type_id": 0
        }
      }
    ],
    "pair": [
      {
        "Sequence": {
          "id": "A",
          "type_id": 0
        }
      },
      {
        "Sequence": {
          "id": "B",
          "type_id": 1
        }
      }
    ],
    "special_tokens": {}
  },
  "decoder": {
    "type": "Sequence",
    "decoders": [
      {
        "type": "Replace",
        "pattern": {
          "String": "▁"
        },
        "content": " "
      },
      {
        "type": "ByteFallback"
      },
      {
        "type": "Fuse"
      }
    ]
  },
  "model": {
    "type": "Unigram",
    "unk_id": 0,
    "vocab": [
      [
        "<pad>",
        0.0
      ],
      [
        "<unk>",
        0.0
      ],
      [
        "<bos>",
        0.0
      ],
      [
        "<eos>",
        0.0
      ],
      [
        ".",
        -2.5632245540618896
      ],
      [
        "▁and",
        -3.2303574085235596
      ],
      [
        ",",
        -3.2978153228759766
      ],
      [
        "▁the",
        -3.30008864402771
      ],
      [
        "▁to",
        -3.572066307067871
      ],
      [
        "▁a",
        -3.666917324066162
      ],
      [
        "▁was",
        -3.866168260574341
      ],
      [
        "▁it",
        -4.458156108856201
      ],
      [
        "▁\"",
        -4.500152587890625
      ],
      [
        "▁She",
        -4.581157207489014
      ],
      [
        "▁her",
        -4.598835468292236
      ],
      [
        "▁He",
        -4.611953258514404
      ],
      [
        "▁They",
        -4.636553764343262
      ],
      [
        "'",
        -4.642782211303711
      ],
      [
        "▁The",
        -4.812124729156494
      ],
      [
        "▁said",
        -4.830012798309326
      ],
      [
        "▁he",
        -4.85945987701416
      ],
      [
        "s",
        -4.919723987579346
      ],
      [
        "▁in",
        -4.960231304168701
      ],
      [
        "▁she",
        -4.9817728996276855
      ],
      [
        "▁with",
        -4.990309238433838
      ],
      [
        "▁Lily",
        -5.004696846008301
      ],
      [
        "▁his",
        -5.063750743865967
      ],
      [
        "▁day",
        -5.120336532592773
      ],
      [
        "▁that",
        -5.138131141662598
      ],
      [
        "▁of",
        -5.143787384033203
      ],
      [
        "▁you",
        -5.228439807891846
      ],
      [
        "▁had",
        -5.23714017868042
      ],
      [
        "▁they",
        -5.23960018157959
      ],
      [
        "▁so",
        -5.256222724914551
      ],
      [
        "▁on",
        -5.289208889007568
      ],
      [
        "▁for",
        -5.413013458251953
      ],
      [
        "▁very",
        -5.477330684661865
      ],
      [
        "!",
        -5.485436916351318
      ],
      [
        "▁time",
        -5.507434844970703
      ],
      [
        "▁little",
        -5.518847942352295
      ],
      [
        "▁there",
        -5.530298709869385
      ],
      [
        "▁mom",
        -5.542179107666016
      ],
      [
        "▁happy",
        -5.563270568847656
      ],
      [
        "▁It",
        -5.567561626434326
      ],
      [
        "t",
        -5.582525253295898
      ],
      [
        "▁is",
        -5.587524890899658
      ],
      [
        "▁",
        -5.600772857666016
      ],
      [
        "▁saw",
        -5.61329984664917
      ],
      [
        "▁not",
        -5.616448879241943
      ],
      [
        "▁big",
        -5.617006301879883
      ],
      [
        ".\"",
        -5.622563362121582
      ],
      [
        "▁One",
        -5.675008296966553
      ],
      [
        "▁I",
        -5.692906856536865
      ],
      [
        "!\"",
        -5.7038445472717285
      ],
      [
        "▁but",
        -5.713134288787842
      ],
      [
        "▁were",
        -5.726649284362793
      ],
      [
        "▁play",
        -5.734339714050293
      ],
      [
        "▁Once",
        -5.742144584655762
      ],
      [
        "▁are",
        -5.859081268310547
      ],
      [
        "▁wanted",
        -5.862628936767578
      ],
      [
        "▁girl",
        -5.866398811340332
      ],
      [
        "▁upon",
        -5.869328022003174
      ],
      [
        "▁him",
        -5.887103080749512
      ],
      [
        "▁them",
        -5.907322406768799
      ],
      [
        "▁their",
        -5.919132232666016
      ],
      [
        "▁have",
        -5.973561763763428
      ],
      [
        "▁be",
        -5.9793925285339355
      ],
      [
        "▁Tom",
        -5.984401702880859
      ],
      [
        "▁up",
        -5.984646797180176
      ],
      [
        "▁Ben",
        -6.021215915679932
      ],
      [
        "▁went",
        -6.047885417938232
      ],
      [
        "▁go",
        -6.05966854095459
      ],
      [
        "?\"",
        -6.0914177894592285
      ],
      [
        "▁can",
        -6.099417686462402
      ],
      [
        "▁But",
        -6.102977275848389
      ],
      [
        "▁at",
        -6.10568904876709
      ],
      [
        "▁friends",
        -6.113797187805176
      ],
      [
        "▁all",
        -6.146111965179443
      ],
      [
        "▁back",
        -6.210439682006836
      ],
      [
        "▁Timmy",
        -6.223606586456299
      ],
      [
        "▁smiled",
        -6.231154918670654
      ],
      [
        "▁named",
        -6.233649253845215
      ],
      [
        "▁too",
        -6.239355087280273
      ],
      [
        "▁loved",
        -6.256918907165527
      ],
      [
        "▁asked",
        -6.270230293273926
      ],
      [
        "▁like",
        -6.277806758880615
      ],
      [
        "▁felt",
        -6.292356491088867
      ],
      [
        "▁could",
        -6.296663761138916
      ],
      [
        "▁fun",
        -6.2972187995910645
      ],
      [
        "▁looked",
        -6.302561283111572
      ],
      [
        "▁around",
        -6.309850692749023
      ],
      [
        "▁out",
        -6.340468883514404
      ],
      [
        "▁boy",
        -6.371769428253174
      ],
      [
        "â",
        -6.384246349334717
      ],
      [
        "€",
        -6.384274005889893
      ],
      [
        "▁help",
        -6.413175106048584
      ],
      [
        "▁see",
        -6.435184478759766
      ],
      [
        "▁would",
        -6.435299396514893
      ],
      [
        "▁did",
        -6.438148021697998
      ],
      [
        "▁what",
        -6.439004421234131
      ],
      [
        "▁make",
        -6.44519567489624
      ],
      [
        "▁some",
        -6.446198463439941
      ],
      [
        ",\"",
        -6.455179691314697
      ],
      [
        "▁away",
        -6.469388961791992
      ],
      [
        "▁started",
        -6.484323978424072
      ],
      [
        "▁says",
        -6.485391616821289
      ],
      [
        "▁ran",
        -6.488897800445557
      ],
      [
        "▁You",
        -6.490541934967041
      ],
      [
        "▁want",
        -6.508580684661865
      ],
      [
        "▁made",
        -6.515709400177002
      ],
      [
        "▁together",
        -6.517670631408691
      ],
      [
        "▁something",
        -6.518649101257324
      ],
      [
        "▁park",
        -6.531294822692871
      ],
      [
        "▁do",
        -6.561390399932861
      ],
      [
        "▁from",
        -6.572803974151611
      ],
      [
        "▁sad",
        -6.58001708984375
      ],
      [
        "I",
        -6.5821943283081055
      ],
      [
        "▁put",
        -6.586039066314697
      ],
      [
        "▁new",
        -6.58687162399292
      ],
      [
        "▁home",
        -6.603374481201172
      ],
      [
        "▁Tim",
        -6.628827095031738
      ],
      [
        "▁found",
        -6.631338596343994
      ],
      [
        "▁again",
        -6.634417533874512
      ],
      [
        "▁then",
        -6.637962818145752
      ],
      [
        "▁bird",
        -6.640261173248291
      ],
      [
        "▁when",
        -6.660959243774414
      ],
      [
        "▁playing",
        -6.673219680786133
      ],
      [
        "▁other",
        -6.681690692901611
      ],
      [
        "▁who",
        -6.689901351928711
      ],
      [
        "▁things",
        -6.7104268074035645
      ],
      [
        "▁liked",
        -6.7237982749938965
      ],
      [
        "▁we",
        -6.741472244262695
      ],
      [
        "▁got",
        -6.745303153991699
      ],
      [
        "▁excited",
        -6.749630451202393
      ],
      [
        "▁friend",
        -6.756340980529785
      ],
      [
        "▁decided",
        -6.759464263916016
      ],
      [
        "▁came",
        -6.766368389129639
      ],
      [
        "▁one",
        -6.788061618804932
      ],
      [
        "▁man",
        -6.7901763916015625
      ],
      [
        "▁scared",
        -6.790341377258301
      ],
      [
        "▁Mom",
        -6.794528007507324
      ],
      [
        "▁down",
        -6.806945323944092
      ],
      [
        "▁an",
        -6.822991371154785
      ],
      [
        "▁Sam",
        -6.846681118011475
      ],
      [
        "▁dog",
        -6.849774360656738
      ],
      [
        "▁find",
        -6.8525471687316895
      ],
      [
        "▁Anna",
        -6.862547874450684
      ],
      [
        "▁your",
        -6.865818500518799
      ],
      [
        "▁will",
        -6.868993759155273
      ],
      [
        "▁get",
        -6.869876384735107
      ],
      [
        "▁Max",
        -6.870424270629883
      ],
      [
        "▁me",
        -6.880640506744385
      ],
      [
        "▁didn",
        -6.881322383880615
      ],
      [
        "▁always",
        -6.890070915222168
      ],
      [
        "▁about",
        -6.891592979431152
      ],
      [
        "▁took",
        -6.891656398773193
      ],
      [
        "▁mommy",
        -6.89998197555542
      ],
      [
        "▁toys",
        -6.9095139503479
      ],
      [
        "▁good",
        -6.914902687072754
      ],
      [
        "▁outside",
        -6.923979759216309
      ],
      [
        "▁tree",
        -6.927873611450195
      ],
      [
        "▁more",
        -6.938338279724121
      ],
      [
        "▁my",
        -6.946381568908691
      ],
      [
        "▁as",
        -6.960968494415283
      ],
      [
        "▁thought",
        -6.967961311340332
      ],
      [
        "▁take",
        -6.981876373291016
      ],
      [
        "▁old",
        -6.9842143058776855
      ],
      [
        "▁special",
        -6.993605136871338
      ],
      [
        "▁knew",
        -7.004444122314453
      ],
      [
        "▁When",
        -7.006995677947998
      ],
      [
        "▁dad",
        -7.022846698760986
      ],
      [
        "▁car",
        -7.028838634490967
      ],
      [
        "▁Her",
        -7.031666278839111
      ],
      [
        "▁toy",
        -7.042651176452637
      ],
      [
        "▁how",
        -7.057011604309082
      ],
      [
        "▁sorry",
        -7.0824174880981445
      ],
      [
        "▁much",
        -7.088454246520996
      ],
      [
        "▁know",
        -7.090053558349609
      ],
      [
        "m",
        -7.090358257293701
      ],
      [
        "▁So",
        -7.090813636779785
      ],
      [
        "▁house",
        -7.103879928588867
      ],
      [
        "▁Jack",
        -7.105790138244629
      ],
      [
        "▁look",
        -7.141272068023682
      ],
      [
        "▁tried",
        -7.143060207366943
      ],
      [
        "▁inside",
        -7.146587371826172
      ],
      [
        "▁into",
        -7.1483354568481445
      ],
      [
        "▁told",
        -7.15715217590332
      ],
      [
        "▁this",
        -7.160032272338867
      ],
      [
        "▁if",
        -7.164305686950684
      ],
      [
        "▁couldn",
        -7.1689839363098145
      ],
      [
        "▁gave",
        -7.172615051269531
      ],
      [
        "▁ball",
        -7.173624038696289
      ],
      [
        "▁heard",
        -7.174100875854492
      ],
      [
        "▁each",
        -7.180403232574463
      ],
      [
        "▁never",
        -7.184304714202881
      ],
      [
        "▁water",
        -7.190085411071777
      ],
      [
        "▁Suddenly",
        -7.19404411315918
      ],
      [
        "▁We",
        -7.195660591125488
      ],
      [
        "▁over",
        -7.199714660644531
      ],
      [
        "▁room",
        -7.209226608276367
      ],
      [
        "▁played",
        -7.2137131690979
      ],
      [
        "▁proud",
        -7.221047401428223
      ],
      [
        "▁Mia",
        -7.224305152893066
      ],
      [
        "▁Then",
        -7.2272629737854
      ],
      [
        "▁just",
        -7.227354049682617
      ],
      [
        "▁hugged",
        -7.230408191680908
      ],
      [
        "▁Sara",
        -7.243877410888672
      ],
      [
        "▁no",
        -7.2454047203063965
      ],
      [
        "▁From",
        -7.253495693206787
      ],
      [
        "▁because",
        -7.255928993225098
      ],
      [
        "▁His",
        -7.263450622558594
      ],
      [
        "▁many",
        -7.272972106933594
      ],
      [
        "▁nice",
        -7.304060935974121
      ],
      [
        "▁box",
        -7.305673122406006
      ],
      [
        "▁bear",
        -7.3216729164123535
      ],
      [
        "▁And",
        -7.334683895111084
      ],
      [
        "▁until",
        -7.346136093139648
      ],
      [
        "▁small",
        -7.353675365447998
      ],
      [
        "▁learned",
        -7.356722354888916
      ],
      [
        "▁better",
        -7.36568021774292
      ],
      [
        "▁best",
        -7.391554832458496
      ],
      [
        "▁don",
        -7.3924126625061035
      ],
      [
        "▁eat",
        -7.4230265617370605
      ],
      [
        "▁garden",
        -7.426920413970947
      ],
      [
        "▁off",
        -7.433078765869141
      ],
      [
        "▁careful",
        -7.434117794036865
      ],
      [
        "▁thanked",
        -7.440578460693359
      ],
      [
        "▁laughed",
        -7.444836139678955
      ],
      [
        "▁sky",
        -7.446966648101807
      ],
      [
        "Yes",
        -7.462043285369873
      ],
      [
        "▁cat",
        -7.46396541595459
      ],
      [
        "▁say",
        -7.469991207122803
      ],
      [
        "▁by",
        -7.4703497886657715
      ],
      [
        "▁even",
        -7.477322101593018
      ],
      [
        "▁come",
        -7.479078769683838
      ],
      [
        "▁end",
        -7.486001968383789
      ],
      [
        "▁beautiful",
        -7.487915992736816
      ],
      [
        "▁love",
        -7.492702960968018
      ],
      [
        "▁long",
        -7.493505001068115
      ],
      [
        "▁lots",
        -7.49854850769043
      ],
      [
        "▁kind",
        -7.505650997161865
      ],
      [
        "▁animals",
        -7.508245468139648
      ],
      [
        "▁still",
        -7.508430004119873
      ],
      [
        "?",
        -7.529121398925781
      ],
      [
        "▁both",
        -7.5435333251953125
      ],
      [
        "▁way",
        -7.54361629486084
      ],
      [
        "▁safe",
        -7.552208423614502
      ],
      [
        "▁let",
        -7.565997123718262
      ],
      [
        "▁two",
        -7.570225715637207
      ],
      [
        "▁feel",
        -7.571755886077881
      ],
      [
        "▁hard",
        -7.581151962280273
      ],
      [
        "▁lived",
        -7.58506441116333
      ],
      [
        "▁As",
        -7.5851874351501465
      ],
      [
        "▁walked",
        -7.598352432250977
      ],
      [
        "▁Lucy",
        -7.604282379150391
      ],
      [
        "You",
        -7.604301452636719
      ],
      [
        "▁angry",
        -7.614911079406738
      ],
      [
        "▁sun",
        -7.618765830993652
      ],
      [
        "▁family",
        -7.619234561920166
      ],
      [
        "▁flew",
        -7.624925136566162
      ],
      [
        "▁people",
        -7.625484466552734
      ],
      [
        "▁called",
        -7.626104831695557
      ],
      [
        "▁hurt",
        -7.627054691314697
      ],
      [
        "▁try",
        -7.6310200691223145
      ],
      [
        "▁red",
        -7.631486892700195
      ],
      [
        "▁loud",
        -7.632717609405518
      ],
      [
        "▁every",
        -7.635634422302246
      ],
      [
        "▁brave",
        -7.636384963989258
      ],
      [
        "▁soon",
        -7.639760971069336
      ],
      [
        "▁kept",
        -7.644502639770508
      ],
      [
        "▁share",
        -7.648318290710449
      ],
      [
        "▁After",
        -7.648403167724609
      ],
      [
        "It",
        -7.651452541351318
      ],
      [
        "▁bad",
        -7.654543399810791
      ],
      [
        "▁Mommy",
        -7.6597442626953125
      ],
      [
        "▁going",
        -7.675004959106445
      ],
      [
        "▁or",
        -7.675600528717041
      ],
      [
        "▁John",
        -7.687212944030762
      ],
      [
        "▁pretty",
        -7.6911301612854
      ],
      [
        "▁noise",
        -7.697249889373779
      ],
      [
        "▁shiny",
        -7.71036958694458
      ],
      [
        "▁opened",
        -7.711239337921143
      ],
      [
        "▁before",
        -7.715158462524414
      ],
      [
        "▁should",
        -7.715412616729736
      ],
      [
        "Let",
        -7.721822261810303
      ],
      [
        "▁door",
        -7.733424186706543
      ],
      [
        "▁ground",
        -7.735064506530762
      ],
      [
        "▁run",
        -7.736708641052246
      ],
      [
        "▁explore",
        -7.738487720489502
      ],
      [
        "▁also",
        -7.738968372344971
      ],
      [
        "▁fast",
        -7.741469860076904
      ],
      [
        "▁idea",
        -7.746957778930664
      ],
      [
        "▁lot",
        -7.74928617477417
      ],
      [
        "▁hug",
        -7.752935409545898
      ],
      [
        "▁now",
        -7.753684997558594
      ],
      [
        "▁nodded",
        -7.762594699859619
      ],
      [
        "No",
        -7.766523838043213
      ],
      [
        "▁feeling",
        -7.769803524017334
      ],
      [
        "▁keep",
        -7.77971076965332
      ],
      [
        "▁walking",
        -7.781269550323486
      ],
      [
        "▁next",
        -7.783037185668945
      ],
      [
        "▁picked",
        -7.783388614654541
      ],
      [
        "▁Every",
        -7.790221214294434
      ],
      [
        "▁has",
        -7.79205322265625
      ],
      [
        "▁its",
        -7.792656421661377
      ],
      [
        "▁while",
        -7.79454231262207
      ],
      [
        "What",
        -7.813773155212402
      ],
      [
        "▁smile",
        -7.81478214263916
      ],
      [
        "▁need",
        -7.817925453186035
      ],
      [
        "▁being",
        -7.830706596374512
      ],
      [
        "▁show",
        -7.831542491912842
      ],
      [
        "▁give",
        -7.834988594055176
      ],
      [
        "▁food",
        -7.845973491668701
      ],
      [
        "▁looking",
        -7.857651710510254
      ],
      [
        "▁eyes",
        -7.865426540374756
      ],
      [
        "▁stopped",
        -7.867973804473877
      ],
      [
        "▁Spot",
        -7.877589225769043
      ],
      [
        "▁Bob",
        -7.886454105377197
      ],
      [
        "▁great",
        -7.890182971954346
      ],
      [
        "▁hand",
        -7.893097877502441
      ],
      [
        "re",
        -7.893301486968994
      ],
      [
        "That",
        -7.894092082977295
      ],
      [
        "Thank",
        -7.900508880615234
      ],
      [
        "▁flowers",
        -7.9010419845581055
      ],
      [
        "▁ever",
        -7.901944160461426
      ],
      [
        "▁clean",
        -7.902492523193359
      ],
      [
        "▁Sue",
        -7.903701305389404
      ],
      [
        "▁forest",
        -7.903933048248291
      ],
      [
        "▁noticed",
        -7.9052324295043945
      ],
      [
        "-",
        -7.913242340087891
      ],
      [
        "▁hands",
        -7.914733409881592
      ],
      [
        "▁important",
        -7.91858434677124
      ],
      [
        "▁fish",
        -7.92907190322876
      ],
      [
        "▁slide",
        -7.932678699493408
      ],
      [
        "▁replied",
        -7.935064315795898
      ],
      [
        "▁showed",
        -7.947029113769531
      ],
      [
        "▁okay",
        -7.951542377471924
      ],
      [
        "▁listen",
        -7.95302677154541
      ],
      [
        "▁after",
        -7.969215393066406
      ],
      [
        "▁right",
        -7.9701337814331055
      ],
      [
        "▁truck",
        -7.97147274017334
      ],
      [
        "▁watched",
        -7.971836566925049
      ],
      [
        "▁Sarah",
        -7.97247314453125
      ],
      [
        "▁everyone",
        -7.975020408630371
      ],
      [
        "▁stay",
        -7.978630542755127
      ],
      [
        "▁voice",
        -7.980554580688477
      ],
      [
        "▁been",
        -7.9841742515563965
      ],
      [
        "▁quickly",
        -7.991199493408203
      ],
      [
        "▁blue",
        -7.993820667266846
      ],
      [
        "▁rabbit",
        -7.999444961547852
      ],
      [
        "▁where",
        -8.000753402709961
      ],
      [
        "▁bed",
        -8.006772994995117
      ],
      [
        "▁different",
        -8.010144233703613
      ],
      [
        "▁walk",
        -8.010770797729492
      ],
      [
        "▁face",
        -8.010821342468262
      ],
      [
        "▁goodbye",
        -8.011451721191406
      ],
      [
        "We",
        -8.013554573059082
      ],
      [
        "▁place",
        -8.014616966247559
      ],
      [
        "▁became",
        -8.015983581542969
      ],
      [
        "▁sure",
        -8.019818305969238
      ],
      [
        "▁work",
        -8.026989936828613
      ],
      [
        "▁Jane",
        -8.03042984008789
      ],
      [
        "▁high",
        -8.032217025756836
      ],
      [
        "▁closer",
        -8.033770561218262
      ],
      [
        "▁head",
        -8.044452667236328
      ],
      [
        "▁fly",
        -8.04792594909668
      ],
      [
        "▁store",
        -8.054622650146484
      ],
      [
        "Look",
        -8.057089805603027
      ],
      [
        "▁our",
        -8.061153411865234
      ],
      [
        "▁curious",
        -8.063438415527344
      ],
      [
        "▁three",
        -8.06552505493164
      ],
      [
        "▁cake",
        -8.071813583374023
      ],
      [
        "▁mean",
        -8.076769828796387
      ],
      [
        "▁Lila",
        -8.079573631286621
      ],
      [
        "▁anymore",
        -8.083967208862305
      ],
      [
        "▁first",
        -8.088554382324219
      ],
      [
        "▁Dad",
        -8.094099998474121
      ],
      [
        "▁here",
        -8.094173431396484
      ],
      [
        "▁use",
        -8.099570274353027
      ],
      [
        "▁strong",
        -8.100305557250977
      ],
      [
        "▁doll",
        -8.102540016174316
      ],
      [
        "▁grabbed",
        -8.103564262390137
      ],
      [
        "▁boat",
        -8.116846084594727
      ],
      [
        "▁only",
        -8.117029190063477
      ],
      [
        "▁us",
        -8.118081092834473
      ],
      [
        "▁fell",
        -8.121586799621582
      ],
      [
        "▁adventure",
        -8.121698379516602
      ],
      [
        "▁night",
        -8.12417984008789
      ],
      [
        "▁warm",
        -8.125604629516602
      ],
      [
        "▁wait",
        -8.127044677734375
      ],
      [
        "▁jumped",
        -8.130897521972656
      ],
      [
        "▁Everyone",
        -8.131863594055176
      ],
      [
        "▁kitchen",
        -8.135255813598633
      ],
      [
        "▁glad",
        -8.139972686767578
      ],
      [
        "▁helped",
        -8.14629077911377
      ],
      [
        "Can",
        -8.146370887756348
      ],
      [
        "▁That",
        -8.149438858032227
      ],
      [
        "▁does",
        -8.153322219848633
      ],
      [
        "▁Joe",
        -8.160992622375488
      ],
      [
        "▁happened",
        -8.162629127502441
      ],
      [
        "▁birds",
        -8.168020248413086
      ],
      [
        "▁bunny",
        -8.168682098388672
      ],
      [
        "▁story",
        -8.169729232788086
      ],
      [
        "▁dress",
        -8.173954010009766
      ],
      [
        "▁cry",
        -8.174736022949219
      ],
      [
        "▁shouted",
        -8.17529582977295
      ],
      [
        "▁Let",
        -8.179332733154297
      ],
      [
        "▁book",
        -8.18350601196289
      ],
      [
        "▁Tommy",
        -8.189823150634766
      ],
      [
        "▁realized",
        -8.189902305603027
      ],
      [
        "▁reached",
        -8.1903076171875
      ],
      [
        "▁yummy",
        -8.190590858459473
      ],
      [
        "▁having",
        -8.196907997131348
      ],
      [
        "▁bright",
        -8.199420928955078
      ],
      [
        "▁favorite",
        -8.204485893249512
      ],
      [
        "▁grass",
        -8.205227851867676
      ],
      [
        "▁game",
        -8.205727577209473
      ],
      [
        "▁bit",
        -8.208005905151367
      ],
      [
        "▁rock",
        -8.211546897888184
      ],
      [
        "▁mum",
        -8.213257789611816
      ],
      [
        "▁open",
        -8.213315963745117
      ],
      [
        "▁ate",
        -8.215811729431152
      ],
      [
        "▁sees",
        -8.217370986938477
      ],
      [
        "▁thing",
        -8.219732284545898
      ],
      [
        "▁am",
        -8.22402572631836
      ],
      [
        "▁lady",
        -8.226179122924805
      ],
      [
        "▁really",
        -8.229795455932617
      ],
      [
        "▁ready",
        -8.234177589416504
      ],
      [
        "▁learn",
        -8.236021995544434
      ],
      [
        "▁through",
        -8.236246109008789
      ],
      [
        "▁began",
        -8.23885440826416
      ],
      [
        "▁watch",
        -8.238941192626953
      ],
      [
        "▁world",
        -8.241905212402344
      ],
      [
        "▁Can",
        -8.242048263549805
      ],
      [
        "▁himself",
        -8.250229835510254
      ],
      [
        "▁done",
        -8.251504898071289
      ],
      [
        "▁making",
        -8.253134727478027
      ],
      [
        "ing",
        -8.253435134887695
      ],
      [
        "▁A",
        -8.255900382995605
      ],
      [
        "▁coming",
        -8.25849437713623
      ],
      [
        "▁pond",
        -8.259078979492188
      ],
      [
        "▁kids",
        -8.265342712402344
      ],
      [
        "▁why",
        -8.265829086303711
      ],
      [
        "▁looks",
        -8.266980171203613
      ],
      [
        "▁stop",
        -8.267873764038086
      ],
      [
        "▁Do",
        -8.267939567565918
      ],
      [
        "▁waved",
        -8.271951675415039
      ],
      [
        "▁tired",
        -8.273338317871094
      ],
      [
        "▁flower",
        -8.275826454162598
      ],
      [
        "▁than",
        -8.275861740112305
      ],
      [
        "▁near",
        -8.27729320526123
      ],
      [
        "▁name",
        -8.279273986816406
      ],
      [
        "▁mouse",
        -8.279812812805176
      ],
      [
        "▁worry",
        -8.291144371032715
      ],
      [
        "▁funny",
        -8.295763969421387
      ],
      [
        "▁used",
        -8.296868324279785
      ],
      [
        "▁parents",
        -8.29731273651123
      ],
      [
        "▁Sally",
        -8.297657012939453
      ],
      [
        "▁seen",
        -8.302781105041504
      ],
      [
        "▁another",
        -8.306177139282227
      ],
      [
        "▁cried",
        -8.309457778930664
      ],
      [
        "▁under",
        -8.31098747253418
      ],
      [
        "▁doing",
        -8.311006546020508
      ],
      [
        "Wow",
        -8.312182426452637
      ],
      [
        "▁surprise",
        -8.312313079833984
      ],
      [
        "▁hopped",
        -8.313155174255371
      ],
      [
        "▁cars",
        -8.316781997680664
      ],
      [
        "▁top",
        -8.320056915283203
      ],
      [
        "▁blocks",
        -8.324247360229492
      ],
      [
        "▁care",
        -8.324715614318848
      ],
      [
        "▁green",
        -8.331079483032227
      ],
      [
        "▁soft",
        -8.334002494812012
      ],
      [
        "▁touch",
        -8.335907936096191
      ],
      [
        "▁think",
        -8.336067199707031
      ],
      [
        "▁lesson",
        -8.336134910583496
      ],
      [
        "▁catch",
        -8.33918571472168
      ],
      [
        "▁brother",
        -8.34102725982666
      ],
      [
        "▁floor",
        -8.348577499389648
      ],
      [
        "▁full",
        -8.352527618408203
      ],
      [
        "▁pick",
        -8.354837417602539
      ],
      [
        "▁running",
        -8.355046272277832
      ],
      [
        "▁worked",
        -8.356468200683594
      ],
      [
        "\".",
        -8.356597900390625
      ],
      [
        "▁-",
        -8.35910415649414
      ],
      [
        "▁years",
        -8.359602928161621
      ],
      [
        "▁behind",
        -8.361205101013184
      ],
      [
        "▁yellow",
        -8.36180591583252
      ],
      [
        "▁paper",
        -8.36530876159668
      ],
      [
        "▁wished",
        -8.365663528442383
      ],
      [
        "▁happily",
        -8.368229866027832
      ],
      [
        "▁Daisy",
        -8.37441635131836
      ],
      [
        "▁surprised",
        -8.38404655456543
      ],
      [
        "▁butterfly",
        -8.384127616882324
      ],
      [
        "▁trees",
        -8.384571075439453
      ],
      [
        "TMs",
        -8.386428833007812
      ],
      [
        "▁lost",
        -8.38819408416748
      ],
      [
        "Don",
        -8.394510269165039
      ],
      [
        "▁Benny",
        -8.394585609436035
      ],
      [
        "▁carefully",
        -8.397928237915039
      ],
      [
        "▁remembered",
        -8.399009704589844
      ],
      [
        "▁held",
        -8.400115013122559
      ],
      [
        "▁ice",
        -8.403448104858398
      ],
      [
        "▁hole",
        -8.404679298400879
      ],
      [
        "ll",
        -8.408102989196777
      ],
      [
        "ed",
        -8.409162521362305
      ],
      [
        "▁cool",
        -8.410747528076172
      ],
      [
        "▁needed",
        -8.411776542663574
      ],
      [
        "▁At",
        -8.415994644165039
      ],
      [
        "▁tell",
        -8.417696952819824
      ],
      [
        "▁cold",
        -8.418902397155762
      ],
      [
        "▁likes",
        -8.42117977142334
      ],
      [
        "▁left",
        -8.424993515014648
      ],
      [
        "▁sat",
        -8.427244186401367
      ],
      [
        "▁dark",
        -8.429383277893066
      ],
      [
        "▁anything",
        -8.429746627807617
      ],
      [
        "▁picture",
        -8.429766654968262
      ],
      [
        "▁Billy",
        -8.43238353729248
      ],
      [
        "▁enjoyed",
        -8.4349365234375
      ],
      [
        "▁wrong",
        -8.43619155883789
      ],
      [
        "▁buy",
        -8.437843322753906
      ],
      [
        "Hello",
        -8.439186096191406
      ],
      [
        "▁hear",
        -8.43956470489502
      ],
      [
        "▁move",
        -8.442046165466309
      ],
      [
        "▁Now",
        -8.446064949035645
      ],
      [
        "▁sound",
        -8.446266174316406
      ],
      [
        "▁followed",
        -8.449435234069824
      ],
      [
        "▁children",
        -8.451739311218262
      ],
      [
        "▁delicious",
        -8.453415870666504
      ],
      [
        "▁finished",
        -8.455718994140625
      ],
      [
        "▁Finally",
        -8.455958366394043
      ],
      [
        "▁hat",
        -8.462118148803711
      ],
      [
        "▁There",
        -8.463303565979004
      ],
      [
        "▁Molly",
        -8.468295097351074
      ],
      [
        "▁friendly",
        -8.468605041503906
      ],
      [
        "▁rain",
        -8.469369888305664
      ],
      [
        "▁herself",
        -8.469527244567871
      ],
      [
        "▁close",
        -8.47374439239502
      ],
      [
        "▁table",
        -8.477299690246582
      ],
      [
        "▁please",
        -8.478354454040527
      ],
      [
        "▁frog",
        -8.481813430786133
      ],
      [
        "▁own",
        -8.48782730102539
      ],
      [
        "▁Amy",
        -8.490264892578125
      ],
      [
        "▁arrived",
        -8.491673469543457
      ],
      [
        "▁else",
        -8.494606018066406
      ],
      [
        "▁wonderful",
        -8.497321128845215
      ],
      [
        "▁window",
        -8.498900413513184
      ],
      [
        "▁wind",
        -8.504423141479492
      ],
      [
        "▁swing",
        -8.505370140075684
      ],
      [
        "▁colors",
        -8.508023262023926
      ],
      [
        "▁baby",
        -8.509064674377441
      ],
      [
        "▁read",
        -8.514106750488281
      ],
      [
        "▁broken",
        -8.517553329467773
      ],
      [
        "▁able",
        -8.520404815673828
      ],
      [
        "▁sweet",
        -8.523612022399902
      ],
      [
        "▁gone",
        -8.526775360107422
      ],
      [
        "▁stick",
        -8.533748626708984
      ],
      [
        "▁hill",
        -8.533976554870605
      ],
      [
        "▁filled",
        -8.534785270690918
      ],
      [
        "▁climb",
        -8.535626411437988
      ],
      [
        "▁someone",
        -8.536214828491211
      ],
      [
        "▁agreed",
        -8.539965629577637
      ],
      [
        "▁continued",
        -8.541379928588867
      ],
      [
        "▁pink",
        -8.542410850524902
      ],
      [
        "▁books",
        -8.545642852783203
      ],
      [
        "▁lion",
        -8.550951957702637
      ],
      [
        "▁bag",
        -8.551243782043457
      ],
      [
        "▁yes",
        -8.558043479919434
      ],
      [
        "▁tall",
        -8.56002140045166
      ],
      [
        "▁enough",
        -8.56052017211914
      ],
      [
        "▁jump",
        -8.564192771911621
      ],
      [
        "▁leaves",
        -8.569453239440918
      ],
      [
        "▁understand",
        -8.569716453552246
      ],
      [
        "▁This",
        -8.57101058959961
      ],
      [
        "▁any",
        -8.574003219604492
      ],
      [
        "▁ask",
        -8.578059196472168
      ],
      [
        "▁morning",
        -8.580072402954102
      ],
      [
        "▁cookies",
        -8.584197044372559
      ],
      [
        "▁getting",
        -8.584922790527344
      ],
      [
        "▁finally",
        -8.585400581359863
      ],
      [
        "▁fire",
        -8.5909423828125
      ],
      [
        "▁far",
        -8.59524154663086
      ],
      [
        "▁stayed",
        -8.597771644592285
      ],
      [
        "▁hot",
        -8.598526000976562
      ],
      [
        "▁beach",
        -8.600056648254395
      ],
      [
        "▁laugh",
        -8.600075721740723
      ],
      [
        "▁mess",
        -8.604564666748047
      ],
      [
        "▁hair",
        -8.605247497558594
      ],
      [
        "▁wants",
        -8.605501174926758
      ],
      [
        "▁sometimes",
        -8.610109329223633
      ],
      [
        "▁few",
        -8.610523223876953
      ],
      [
        "▁scary",
        -8.6141996383667
      ],
      [
        "▁forgot",
        -8.614795684814453
      ],
      [
        "▁mother",
        -8.616924285888672
      ],
      [
        "▁Maybe",
        -8.617395401000977
      ],
      [
        "▁hungry",
        -8.617887496948242
      ],
      [
        "▁set",
        -8.619413375854492
      ],
      [
        "▁dinner",
        -8.619501113891602
      ],
      [
        "▁turned",
        -8.62036418914795
      ],
      [
        "e",
        -8.624835968017578
      ],
      [
        "▁What",
        -8.629332542419434
      ],
      [
        "▁castle",
        -8.630047798156738
      ],
      [
        "▁grandma",
        -8.630253791809082
      ],
      [
        "▁daddy",
        -8.630410194396973
      ],
      [
        "▁trying",
        -8.63425064086914
      ],
      [
        "▁amazing",
        -8.639029502868652
      ],
      [
        "▁wet",
        -8.642659187316895
      ],
      [
        "▁climbed",
        -8.648676872253418
      ],
      [
        "▁pictures",
        -8.655539512634277
      ],
      [
        "d",
        -8.659061431884766
      ],
      [
        "▁squirrel",
        -8.660460472106934
      ],
      [
        "▁talk",
        -8.660799980163574
      ],
      [
        "▁fix",
        -8.661588668823242
      ],
      [
        "▁cream",
        -8.664898872375488
      ],
      [
        "▁white",
        -8.666267395019531
      ],
      [
        "▁listened",
        -8.667895317077637
      ],
      [
        "▁clothes",
        -8.668169021606445
      ],
      [
        "▁moment",
        -8.673541069030762
      ],
      [
        "▁smiles",
        -8.6742525100708
      ],
      [
        "▁Jill",
        -8.674785614013672
      ],
      [
        "▁alone",
        -8.677860260009766
      ],
      [
        "▁light",
        -8.683012962341309
      ],
      [
        "▁rest",
        -8.684993743896484
      ],
      [
        "▁puppy",
        -8.685626983642578
      ],
      [
        "▁brought",
        -8.687158584594727
      ],
      [
        "▁air",
        -8.687793731689453
      ],
      [
        "▁everything",
        -8.689057350158691
      ],
      [
        "▁others",
        -8.689237594604492
      ],
      [
        "▁duck",
        -8.691727638244629
      ],
      [
        "▁strange",
        -8.694396018981934
      ],
      [
        "▁wasn",
        -8.70398998260498
      ],
      [
        "▁pulled",
        -8.70456600189209
      ],
      [
        "▁makes",
        -8.70465087890625
      ],
      [
        "▁won",
        -8.705419540405273
      ],
      [
        "▁tail",
        -8.70591926574707
      ],
      [
        "▁woods",
        -8.710590362548828
      ],
      [
        "▁ride",
        -8.717158317565918
      ],
      [
        "▁leave",
        -8.727770805358887
      ],
      [
        "▁asks",
        -8.728655815124512
      ],
      [
        "▁might",
        -8.733633995056152
      ],
      [
        "▁teddy",
        -8.73412036895752
      ],
      [
        "Oh",
        -8.737213134765625
      ],
      [
        "▁joy",
        -8.737675666809082
      ],
      [
        "▁fox",
        -8.738007545471191
      ],
      [
        "▁thank",
        -8.738265991210938
      ],
      [
        "▁amazed",
        -8.740130424499512
      ],
      [
        "▁Soon",
        -8.741584777832031
      ],
      [
        "▁waited",
        -8.75145435333252
      ],
      [
        "▁hide",
        -8.752126693725586
      ],
      [
        "▁towards",
        -8.758082389831543
      ],
      [
        "▁In",
        -8.76390552520752
      ],
      [
        "▁flying",
        -8.770147323608398
      ],
      [
        "▁owner",
        -8.773659706115723
      ],
      [
        "▁silly",
        -8.776881217956543
      ],
      [
        "▁shared",
        -8.78074836730957
      ],
      [
        "▁All",
        -8.781355857849121
      ],
      [
        "▁perfect",
        -8.781765937805176
      ],
      [
        "▁moral",
        -8.783305168151855
      ],
      [
        "But",
        -8.78464126586914
      ],
      [
        "▁Daddy",
        -8.785054206848145
      ],
      [
        "▁sing",
        -8.78525161743164
      ],
      [
        "▁living",
        -8.785425186157227
      ],
      [
        "▁race",
        -8.787921905517578
      ],
      [
        "▁pretend",
        -8.789989471435547
      ],
      [
        "▁job",
        -8.792682647705078
      ],
      [
        "▁promised",
        -8.79310417175293
      ],
      [
        "▁draw",
        -8.793943405151367
      ],
      [
        "▁wear",
        -8.796926498413086
      ],
      [
        "▁lake",
        -8.797185897827148
      ],
      [
        "This",
        -8.797218322753906
      ],
      [
        "▁deep",
        -8.797320365905762
      ],
      [
        "▁Mary",
        -8.801621437072754
      ],
      [
        "▁money",
        -8.802867889404297
      ],
      [
        "▁thinks",
        -8.804787635803223
      ],
      [
        "▁party",
        -8.805912017822266
      ],
      [
        "▁runs",
        -8.807291030883789
      ],
      [
        "O",
        -8.807352066040039
      ],
      [
        "Maybe",
        -8.810968399047852
      ],
      [
        "▁Mama",
        -8.8120698928833
      ],
      [
        "▁colorful",
        -8.821906089782715
      ],
      [
        "▁sand",
        -8.822400093078613
      ],
      [
        "▁dance",
        -8.825331687927246
      ],
      [
        "Okay",
        -8.825759887695312
      ],
      [
        "▁worried",
        -8.826534271240234
      ],
      [
        "▁faster",
        -8.833759307861328
      ],
      [
        "▁slowly",
        -8.834465980529785
      ],
      [
        "▁visit",
        -8.844661712646484
      ],
      [
        "▁broke",
        -8.845003128051758
      ],
      [
        "▁monster",
        -8.846063613891602
      ],
      [
        "▁such",
        -8.847036361694336
      ],
      [
        "▁bigger",
        -8.847611427307129
      ],
      [
        "▁pieces",
        -8.851593017578125
      ],
      [
        "▁grateful",
        -8.853143692016602
      ],
      [
        "▁bike",
        -8.85938549041748
      ],
      [
        "▁sit",
        -8.862046241760254
      ],
      [
        "Mom",
        -8.862391471862793
      ],
      [
        "▁side",
        -8.874040603637695
      ],
      [
        "▁join",
        -8.875638961791992
      ],
      [
        "▁train",
        -8.876654624938965
      ],
      [
        "ir",
        -8.876938819885254
      ],
      [
        "▁magical",
        -8.877801895141602
      ],
      [
        "▁candy",
        -8.879095077514648
      ],
      [
        "▁everywhere",
        -8.88383674621582
      ],
      [
        "▁most",
        -8.884781837463379
      ],
      [
        "▁music",
        -8.884984016418457
      ],
      [
        "▁dangerous",
        -8.885225296020508
      ],
      [
        "▁across",
        -8.88706111907959
      ],
      [
        "▁sleep",
        -8.889188766479492
      ],
      [
        "▁farmer",
        -8.889669418334961
      ],
      [
        "▁cut",
        -8.892131805419922
      ],
      [
        "▁smart",
        -8.892180442810059
      ],
      [
        "▁sister",
        -8.89343547821045
      ],
      [
        "y",
        -8.893881797790527
      ],
      [
        "▁Just",
        -8.894128799438477
      ],
      [
        "▁helping",
        -8.898689270019531
      ],
      [
        "▁spot",
        -8.898791313171387
      ],
      [
        "▁bug",
        -8.905659675598145
      ],
      [
        "▁Jimmy",
        -8.905683517456055
      ],
      [
        "▁dragon",
        -8.909132957458496
      ],
      [
        "▁threw",
        -8.91220474243164
      ],
      [
        "▁heavy",
        -8.913601875305176
      ],
      [
        "Hi",
        -8.915725708007812
      ],
      [
        "▁words",
        -8.916401863098145
      ],
      [
        "▁met",
        -8.917891502380371
      ],
      [
        "▁field",
        -8.918500900268555
      ],
      [
        "▁twins",
        -8.919286727905273
      ],
      [
        "▁tight",
        -8.919806480407715
      ],
      [
        "▁princess",
        -8.920044898986816
      ],
      [
        "▁river",
        -8.92019271850586
      ],
      [
        "▁stepped",
        -8.920342445373535
      ],
      [
        "▁reach",
        -8.920772552490234
      ],
      [
        "▁tower",
        -8.920910835266113
      ],
      [
        "▁dirty",
        -8.922076225280762
      ],
      [
        "▁same",
        -8.92227840423584
      ],
      [
        "▁dolls",
        -8.922327041625977
      ],
      [
        "▁bite",
        -8.926547050476074
      ],
      [
        "▁crying",
        -8.927178382873535
      ],
      [
        "TMt",
        -8.928444862365723
      ],
      [
        "▁Grandma",
        -8.932782173156738
      ],
      [
        "▁wouldn",
        -8.93283462524414
      ],
      [
        "Sure",
        -8.935945510864258
      ],
      [
        "▁believe",
        -8.93728256225586
      ],
      [
        "▁wall",
        -8.93870735168457
      ],
      [
        "▁remember",
        -8.941227912902832
      ],
      [
        "▁start",
        -8.943686485290527
      ],
      [
        "▁closed",
        -8.952024459838867
      ],
      [
        "▁turn",
        -8.952409744262695
      ],
      [
        "▁stuck",
        -8.959660530090332
      ],
      [
        "▁school",
        -8.962668418884277
      ],
      [
        "▁brown",
        -8.96340274810791
      ],
      [
        "▁quiet",
        -8.963481903076172
      ],
      [
        "▁balloon",
        -8.966443061828613
      ],
      [
        "▁song",
        -8.967068672180176
      ],
      [
        "▁hoped",
        -8.968707084655762
      ],
      [
        "Why",
        -8.970573425292969
      ],
      [
        "▁must",
        -8.970636367797852
      ],
      [
        "▁suddenly",
        -8.973291397094727
      ],
      [
        "▁bowl",
        -8.974915504455566
      ],
      [
        "▁Emma",
        -8.975719451904297
      ],
      [
        "▁Mum",
        -8.976508140563965
      ],
      [
        "▁mouth",
        -8.977758407592773
      ],
      [
        "▁eating",
        -8.979035377502441
      ],
      [
        "▁course",
        -8.987286567687988
      ],
      [
        "▁swim",
        -8.987580299377441
      ],
      [
        "▁gentle",
        -8.9896240234375
      ],
      [
        "▁black",
        -8.990715026855469
      ],
      [
        "▁clapped",
        -8.990796089172363
      ],
      [
        "Mommy",
        -8.993464469909668
      ],
      [
        "▁fairy",
        -8.993646621704102
      ],
      [
        "▁feels",
        -9.00135612487793
      ],
      [
        "▁drove",
        -9.00563907623291
      ],
      [
        "▁town",
        -9.00936508178711
      ],
      [
        "▁without",
        -9.011001586914062
      ],
      [
        "▁pushed",
        -9.011767387390137
      ],
      [
        "▁animal",
        -9.01401424407959
      ],
      [
        "▁welcome",
        -9.01551342010498
      ],
      [
        "▁blanket",
        -9.017178535461426
      ],
      [
        "▁break",
        -9.017229080200195
      ],
      [
        "▁swings",
        -9.017303466796875
      ],
      [
        "▁higher",
        -9.018282890319824
      ],
      [
        "▁paint",
        -9.020341873168945
      ],
      [
        "▁child",
        -9.021953582763672
      ],
      [
        "▁Inside",
        -9.023167610168457
      ],
      [
        "▁today",
        -9.027730941772461
      ],
      [
        "▁doctor",
        -9.032102584838867
      ],
      [
        "▁teacher",
        -9.032405853271484
      ],
      [
        "▁piece",
        -9.033080101013184
      ],
      [
        "▁treasure",
        -9.038848876953125
      ],
      [
        "▁pet",
        -9.039619445800781
      ],
      [
        "▁longer",
        -9.04023265838623
      ],
      [
        "▁wings",
        -9.041815757751465
      ],
      [
        "▁yard",
        -9.041833877563477
      ],
      [
        "▁cheered",
        -9.045591354370117
      ],
      [
        "▁explained",
        -9.046298027038574
      ],
      [
        "▁late",
        -9.053852081298828
      ],
      [
        "▁games",
        -9.058306694030762
      ],
      [
        "▁sang",
        -9.064922332763672
      ],
      [
        "▁shoes",
        -9.070302963256836
      ],
      [
        "▁stories",
        -9.071494102478027
      ],
      [
        "▁sign",
        -9.072339057922363
      ],
      [
        "▁turns",
        -9.076068878173828
      ],
      [
        "▁build",
        -9.077590942382812
      ],
      [
        "▁fence",
        -9.077779769897461
      ],
      [
        "▁magic",
        -9.081831932067871
      ],
      [
        "▁along",
        -9.082072257995605
      ],
      [
        "▁singing",
        -9.082135200500488
      ],
      [
        "▁lonely",
        -9.084396362304688
      ],
      [
        "▁jar",
        -9.085476875305176
      ],
      [
        "▁noises",
        -9.089975357055664
      ],
      [
        "▁well",
        -9.09005355834961
      ],
      [
        "▁monkey",
        -9.091668128967285
      ],
      [
        "▁mine",
        -9.09239387512207
      ],
      [
        "▁upset",
        -9.092439651489258
      ],
      [
        "▁hugs",
        -9.095284461975098
      ],
      [
        "▁apple",
        -9.095885276794434
      ],
      [
        "▁dry",
        -9.09824275970459
      ],
      [
        "▁year",
        -9.101982116699219
      ],
      [
        "▁adventures",
        -9.105569839477539
      ],
      [
        "▁sea",
        -9.106420516967773
      ],
      [
        "▁wish",
        -9.106578826904297
      ],
      [
        "▁fight",
        -9.10683822631836
      ],
      [
        "▁young",
        -9.10877799987793
      ],
      [
        "▁exploring",
        -9.108881950378418
      ],
      [
        "▁On",
        -9.109821319580078
      ],
      [
        "▁shook",
        -9.112161636352539
      ],
      [
        "▁nearby",
        -9.117778778076172
      ],
      [
        "▁pocket",
        -9.118077278137207
      ],
      [
        "▁lunch",
        -9.118229866027832
      ],
      [
        "▁moved",
        -9.118365287780762
      ],
      [
        "▁naughty",
        -9.119224548339844
      ],
      [
        "▁Fluffy",
        -9.12136459350586
      ],
      [
        "▁wise",
        -9.125140190124512
      ],
      [
        "▁stars",
        -9.126148223876953
      ],
      [
        "▁Sammy",
        -9.127227783203125
      ],
      [
        "▁soup",
        -9.12874698638916
      ],
      [
        "▁caught",
        -9.128764152526855
      ],
      [
        "▁owl",
        -9.129119873046875
      ],
      [
        "▁enjoy",
        -9.129751205444336
      ],
      [
        "▁bee",
        -9.130311965942383
      ],
      [
        "▁street",
        -9.13056755065918
      ],
      [
        "▁hold",
        -9.131082534790039
      ],
      [
        "▁forget",
        -9.132368087768555
      ],
      [
        "▁dropped",
        -9.133199691772461
      ],
      [
        "▁chair",
        -9.136703491210938
      ],
      [
        "▁seemed",
        -9.139159202575684
      ],
      [
        "▁backyard",
        -9.13927173614502
      ],
      [
        "▁orange",
        -9.139615058898926
      ],
      [
        "▁heart",
        -9.142040252685547
      ],
      [
        "▁swam",
        -9.148601531982422
      ],
      [
        "▁though",
        -9.1521635055542
      ],
      [
        "▁purple",
        -9.155176162719727
      ],
      [
        "▁nap",
        -9.156036376953125
      ],
      [
        "▁taking",
        -9.157361030578613
      ],
      [
        "▁woke",
        -9.157361030578613
      ],
      [
        "▁snow",
        -9.16137409210205
      ],
      [
        "▁star",
        -9.161383628845215
      ],
      [
        "▁hit",
        -9.164834976196289
      ],
      [
        "▁wondered",
        -9.166558265686035
      ],
      [
        "▁rocks",
        -9.167515754699707
      ],
      [
        "▁nest",
        -9.171066284179688
      ],
      [
        "▁bench",
        -9.171210289001465
      ],
      [
        "▁shapes",
        -9.177626609802246
      ],
      [
        "▁nose",
        -9.178447723388672
      ],
      [
        "\"",
        -9.178526878356934
      ],
      [
        "▁key",
        -9.180928230285645
      ],
      [
        "▁Later",
        -9.181025505065918
      ],
      [
        "▁busy",
        -9.183534622192383
      ],
      [
        "▁sounds",
        -9.184113502502441
      ],
      [
        "▁basket",
        -9.184364318847656
      ],
      [
        "▁kite",
        -9.18465805053711
      ],
      [
        "▁juice",
        -9.18693733215332
      ],
      [
        "▁sitting",
        -9.18947982788086
      ],
      [
        "▁farm",
        -9.189997673034668
      ],
      [
        "▁tiny",
        -9.19062614440918
      ],
      [
        "▁mad",
        -9.191003799438477
      ],
      [
        "Lily",
        -9.191682815551758
      ],
      [
        "▁real",
        -9.191762924194336
      ],
      [
        "▁daughter",
        -9.196544647216797
      ],
      [
        "▁pull",
        -9.196667671203613
      ],
      [
        "▁fit",
        -9.197869300842285
      ],
      [
        "▁holding",
        -9.198587417602539
      ],
      [
        "▁secret",
        -9.20523452758789
      ],
      [
        "▁arms",
        -9.205693244934082
      ],
      [
        "▁nothing",
        -9.207558631896973
      ],
      [
        "▁Mr",
        -9.210125923156738
      ],
      [
        "▁fall",
        -9.212800025939941
      ],
      [
        "▁gift",
        -9.213488578796387
      ],
      [
        "▁With",
        -9.215600967407227
      ],
      [
        "Do",
        -9.216814994812012
      ],
      [
        "▁afraid",
        -9.217178344726562
      ],
      [
        "▁relieved",
        -9.218743324279785
      ],
      [
        "▁forever",
        -9.218920707702637
      ],
      [
        "▁cute",
        -9.221158981323242
      ],
      [
        "▁branch",
        -9.225563049316406
      ],
      [
        "▁dream",
        -9.22800350189209
      ],
      [
        "▁bucket",
        -9.230403900146484
      ],
      [
        "▁huge",
        -9.23171329498291
      ],
      [
        "▁Thank",
        -9.231901168823242
      ],
      [
        "▁comes",
        -9.23541259765625
      ],
      [
        "▁bring",
        -9.235487937927246
      ],
      [
        "▁promise",
        -9.240050315856934
      ],
      [
        "ly",
        -9.244311332702637
      ],
      [
        "▁round",
        -9.244795799255371
      ],
      [
        "▁Come",
        -9.245075225830078
      ],
      [
        "▁cheese",
        -9.245238304138184
      ],
      [
        "▁elephant",
        -9.250874519348145
      ],
      [
        "▁sick",
        -9.25206470489502
      ],
      [
        "▁touched",
        -9.252541542053223
      ],
      [
        "▁takes",
        -9.253705978393555
      ],
      [
        "▁Jenny",
        -9.25371265411377
      ],
      [
        "▁pot",
        -9.254474639892578
      ],
      [
        "▁hello",
        -9.255547523498535
      ],
      [
        "Of",
        -9.255935668945312
      ],
      [
        "▁driver",
        -9.257370948791504
      ],
      [
        "▁birthday",
        -9.2603120803833
      ],
      [
        "▁onto",
        -9.26055908203125
      ],
      [
        "▁sunny",
        -9.260793685913086
      ],
      [
        "▁exciting",
        -9.261350631713867
      ],
      [
        "▁T",
        -9.263457298278809
      ],
      [
        "▁rainbow",
        -9.26669979095459
      ],
      [
        "▁treat",
        -9.267511367797852
      ],
      [
        "▁drink",
        -9.267740249633789
      ],
      [
        "▁laughing",
        -9.267816543579102
      ],
      [
        "The",
        -9.27963924407959
      ],
      [
        "▁journey",
        -9.2798433303833
      ],
      [
        "▁cozy",
        -9.282267570495605
      ],
      [
        "▁swimming",
        -9.289321899414062
      ],
      [
        "▁cave",
        -9.290085792541504
      ],
      [
        "▁instead",
        -9.291054725646973
      ],
      [
        "▁follow",
        -9.291760444641113
      ],
      [
        "▁bread",
        -9.294069290161133
      ],
      [
        "▁sharp",
        -9.294171333312988
      ],
      [
        "▁bush",
        -9.298436164855957
      ],
      [
        "▁sunshine",
        -9.29883861541748
      ],
      [
        "▁Emily",
        -9.299332618713379
      ],
      [
        "▁watching",
        -9.3016996383667
      ],
      [
        "▁plan",
        -9.303288459777832
      ],
      [
        "Hey",
        -9.304676055908203
      ],
      [
        "▁life",
        -9.306316375732422
      ],
      [
        "▁bottle",
        -9.306550979614258
      ],
      [
        "▁milk",
        -9.306580543518066
      ],
      [
        "▁accidentally",
        -9.308085441589355
      ],
      [
        "▁Jim",
        -9.311089515686035
      ],
      [
        "▁grow",
        -9.312146186828613
      ],
      [
        "▁lucky",
        -9.31253433227539
      ],
      [
        "▁searched",
        -9.320043563842773
      ],
      [
        "▁talked",
        -9.323098182678223
      ],
      [
        "▁pointed",
        -9.328531265258789
      ],
      [
        "▁honey",
        -9.331233978271484
      ],
      [
        "▁bought",
        -9.331339836120605
      ],
      [
        "▁anyone",
        -9.331829071044922
      ],
      [
        "▁smiling",
        -9.338696479797363
      ],
      [
        "▁woman",
        -9.34320068359375
      ],
      [
        "▁plane",
        -9.344971656799316
      ],
      [
        "▁later",
        -9.345707893371582
      ],
      [
        "▁interesting",
        -9.351463317871094
      ],
      [
        "▁hope",
        -9.352885246276855
      ],
      [
        "▁win",
        -9.35416030883789
      ],
      [
        "▁gives",
        -9.354801177978516
      ],
      [
        "▁Jen",
        -9.354817390441895
      ],
      [
        "▁apples",
        -9.36009407043457
      ],
      [
        "▁healthy",
        -9.362689971923828
      ],
      [
        "▁tasty",
        -9.366527557373047
      ],
      [
        "▁wide",
        -9.36812686920166
      ],
      [
        "▁pile",
        -9.368992805480957
      ],
      [
        "▁clever",
        -9.37110424041748
      ],
      [
        "▁storm",
        -9.371213912963867
      ],
      [
        "▁rope",
        -9.37452220916748
      ],
      [
        "▁trouble",
        -9.376471519470215
      ],
      [
        "▁crayons",
        -9.378859519958496
      ],
      [
        "▁free",
        -9.381261825561523
      ],
      [
        "▁smelled",
        -9.386497497558594
      ],
      [
        "▁ducks",
        -9.386985778808594
      ],
      [
        "▁clouds",
        -9.388265609741211
      ],
      [
        "œI",
        -9.389291763305664
      ],
      [
        "▁button",
        -9.38994026184082
      ],
      [
        "▁front",
        -9.390692710876465
      ],
      [
        "▁shining",
        -9.39317512512207
      ],
      [
        "▁coat",
        -9.393864631652832
      ],
      [
        "▁fair",
        -9.397217750549316
      ],
      [
        "▁person",
        -9.397308349609375
      ],
      [
        "▁loves",
        -9.398923873901367
      ],
      [
        "▁mud",
        -9.399175643920898
      ],
      [
        "▁arm",
        -9.399279594421387
      ],
      [
        "▁spotted",
        -9.403467178344727
      ],
      [
        "▁snake",
        -9.405319213867188
      ],
      [
        "er",
        -9.40576171875
      ],
      [
        "▁snack",
        -9.406005859375
      ],
      [
        "▁Jake",
        -9.406807899475098
      ],
      [
        "▁spoon",
        -9.406922340393066
      ],
      [
        "▁screamed",
        -9.407441139221191
      ],
      [
        "▁danced",
        -9.411100387573242
      ],
      [
        "▁road",
        -9.412997245788574
      ],
      [
        "▁snowman",
        -9.416796684265137
      ],
      [
        "▁which",
        -9.422820091247559
      ],
      [
        "▁appeared",
        -9.422853469848633
      ],
      [
        "▁cup",
        -9.42327880859375
      ],
      [
        "▁bow",
        -9.429328918457031
      ],
      [
        "▁asleep",
        -9.432175636291504
      ],
      [
        "▁shop",
        -9.433887481689453
      ],
      [
        "▁path",
        -9.43799877166748
      ],
      [
        "▁horse",
        -9.4405517578125
      ],
      [
        "▁Mittens",
        -9.442743301391602
      ],
      [
        "▁Together",
        -9.443341255187988
      ],
      [
        "▁patient",
        -9.44360065460205
      ],
      [
        "▁giant",
        -9.44452953338623
      ],
      [
        "▁gently",
        -9.444886207580566
      ],
      [
        "▁wearing",
        -9.44701099395752
      ],
      [
        "▁goes",
        -9.451306343078613
      ],
      [
        "▁lovely",
        -9.452498435974121
      ],
      [
        "▁forgive",
        -9.453396797180176
      ],
      [
        "▁whole",
        -9.453463554382324
      ],
      [
        "▁corner",
        -9.458870887756348
      ],
      [
        "▁rude",
        -9.459148406982422
      ],
      [
        "▁dirt",
        -9.460159301757812
      ],
      [
        "▁answer",
        -9.461053848266602
      ],
      [
        "▁matter",
        -9.461200714111328
      ],
      [
        "▁fruit",
        -9.464037895202637
      ],
      [
        "▁picnic",
        -9.46617317199707
      ],
      [
        "▁tries",
        -9.467206954956055
      ],
      [
        "▁confused",
        -9.467755317687988
      ],
      [
        "▁ocean",
        -9.474044799804688
      ],
      [
        "▁Lisa",
        -9.47760009765625
      ],
      [
        "▁places",
        -9.480737686157227
      ],
      [
        "▁king",
        -9.48476505279541
      ],
      [
        "▁tasted",
        -9.485103607177734
      ],
      [
        "Come",
        -9.485579490661621
      ],
      [
        "▁rolled",
        -9.486148834228516
      ],
      [
        "▁machine",
        -9.48978328704834
      ],
      [
        "▁wild",
        -9.490909576416016
      ],
      [
        "▁teeth",
        -9.497723579406738
      ],
      [
        "▁spent",
        -9.497912406921387
      ],
      [
        "▁phone",
        -9.497974395751953
      ],
      [
        "▁cookie",
        -9.498554229736328
      ],
      [
        "▁feet",
        -9.504015922546387
      ],
      [
        "▁oven",
        -9.509458541870117
      ],
      [
        "▁Peter",
        -9.514144897460938
      ],
      [
        "▁helpful",
        -9.515470504760742
      ],
      [
        "▁furry",
        -9.518136024475098
      ],
      [
        "▁problem",
        -9.518461227416992
      ],
      [
        "▁eventually",
        -9.520563125610352
      ],
      [
        "▁wave",
        -9.521450996398926
      ],
      [
        "▁spider",
        -9.521758079528809
      ],
      [
        "▁pretended",
        -9.52263069152832
      ],
      [
        "▁drive",
        -9.52408218383789
      ],
      [
        "▁throw",
        -9.524144172668457
      ],
      [
        "▁last",
        -9.525038719177246
      ],
      [
        "▁village",
        -9.525382041931152
      ],
      [
        "▁smell",
        -9.535080909729004
      ],
      [
        "n",
        -9.53544807434082
      ],
      [
        "▁tomorrow",
        -9.535694122314453
      ],
      [
        "▁talking",
        -9.539777755737305
      ],
      [
        "▁ladder",
        -9.54092025756836
      ],
      [
        "▁sack",
        -9.541512489318848
      ],
      [
        "▁faces",
        -9.54162883758545
      ],
      [
        "▁write",
        -9.542044639587402
      ],
      [
        "▁building",
        -9.545284271240234
      ],
      [
        "▁cow",
        -9.545778274536133
      ],
      [
        "▁fur",
        -9.546751022338867
      ],
      [
        "▁part",
        -9.547877311706543
      ],
      [
        "▁couch",
        -9.548150062561035
      ],
      [
        "▁calm",
        -9.551124572753906
      ],
      [
        "▁puddle",
        -9.551180839538574
      ],
      [
        "▁coin",
        -9.551250457763672
      ],
      [
        "▁happen",
        -9.551496505737305
      ],
      [
        "▁trip",
        -9.553438186645508
      ],
      [
        "▁mind",
        -9.55406379699707
      ],
      [
        "▁fighting",
        -9.554976463317871
      ],
      [
        "▁Sometimes",
        -9.55524730682373
      ],
      [
        "▁slow",
        -9.556098937988281
      ],
      [
        "▁push",
        -9.55704402923584
      ],
      [
        "▁wore",
        -9.559494972229004
      ],
      [
        "▁Teddy",
        -9.560328483581543
      ],
      [
        "œ",
        -9.561124801635742
      ],
      [
        "▁blew",
        -9.565317153930664
      ],
      [
        "▁chased",
        -9.565762519836426
      ],
      [
        "Good",
        -9.566314697265625
      ],
      [
        "▁Little",
        -9.566370964050293
      ],
      [
        "▁shy",
        -9.567438125610352
      ],
      [
        "▁smooth",
        -9.568297386169434
      ],
      [
        "▁zoo",
        -9.568573951721191
      ],
      [
        "▁treats",
        -9.571123123168945
      ],
      [
        "▁bugs",
        -9.571648597717285
      ],
      [
        "▁hiding",
        -9.572294235229492
      ],
      [
        "▁selfish",
        -9.572320938110352
      ],
      [
        "▁call",
        -9.575190544128418
      ],
      [
        "▁knee",
        -9.57520866394043
      ],
      [
        "▁whenever",
        -9.577816009521484
      ],
      [
        "▁pool",
        -9.579374313354492
      ],
      [
        "▁grab",
        -9.5797119140625
      ],
      [
        "▁cloth",
        -9.58185863494873
      ],
      [
        "ex",
        -9.58199405670166
      ],
      [
        "▁shelf",
        -9.582801818847656
      ],
      [
        "▁string",
        -9.58349323272705
      ],
      [
        "▁finish",
        -9.58363151550293
      ],
      [
        "▁taste",
        -9.584213256835938
      ],
      [
        "▁waiting",
        -9.584649085998535
      ],
      [
        "▁stone",
        -9.584799766540527
      ],
      [
        "▁chocolate",
        -9.586603164672852
      ],
      [
        "▁lay",
        -9.590340614318848
      ],
      [
        "▁maybe",
        -9.593316078186035
      ],
      [
        "▁letter",
        -9.59359359741211
      ],
      [
        "▁songs",
        -9.596784591674805
      ],
      [
        "▁cannot",
        -9.597369194030762
      ],
      [
        "▁Everywhere",
        -9.59737777709961
      ],
      [
        "▁plant",
        -9.597628593444824
      ],
      [
        "▁Mummy",
        -9.598467826843262
      ],
      [
        "▁robot",
        -9.598689079284668
      ],
      [
        "▁fixed",
        -9.5986967086792
      ],
      [
        "▁barked",
        -9.59870719909668
      ],
      [
        "▁carrot",
        -9.60745906829834
      ],
      [
        "▁kiss",
        -9.608047485351562
      ],
      [
        "▁count",
        -9.609780311584473
      ],
      [
        "▁leaf",
        -9.610621452331543
      ],
      [
        "▁large",
        -9.614498138427734
      ],
      [
        "▁cloud",
        -9.619380950927734
      ],
      [
        "▁Johnny",
        -9.62321949005127
      ],
      [
        "▁jungle",
        -9.62348461151123
      ],
      [
        "▁spread",
        -9.626930236816406
      ],
      [
        "▁seat",
        -9.627286911010742
      ],
      [
        "▁forward",
        -9.629040718078613
      ],
      [
        "▁color",
        -9.634546279907227
      ],
      [
        "▁missed",
        -9.636152267456055
      ],
      [
        "▁meet",
        -9.636482238769531
      ],
      [
        "▁wash",
        -9.637466430664062
      ],
      [
        "▁peaceful",
        -9.638202667236328
      ],
      [
        "▁hid",
        -9.639423370361328
      ],
      [
        "▁jumping",
        -9.639439582824707
      ],
      [
        "▁Alice",
        -9.639596939086914
      ],
      [
        "Tom",
        -9.642257690429688
      ],
      [
        "▁embarrassed",
        -9.64281177520752
      ],
      [
        "▁shirt",
        -9.643250465393066
      ],
      [
        "▁neighbor",
        -9.645037651062012
      ],
      [
        "▁Please",
        -9.645868301391602
      ],
      [
        "▁creature",
        -9.647013664245605
      ],
      [
        "▁landed",
        -9.650522232055664
      ],
      [
        "▁tidy",
        -9.652382850646973
      ],
      [
        "My",
        -9.6524076461792
      ],
      [
        "▁protect",
        -9.655272483825684
      ],
      [
        "▁whistle",
        -9.65731430053711
      ],
      [
        "▁land",
        -9.658027648925781
      ],
      [
        "▁necklace",
        -9.658900260925293
      ],
      [
        "▁bus",
        -9.659187316894531
      ],
      [
        "▁tea",
        -9.660917282104492
      ],
      [
        "▁carry",
        -9.660959243774414
      ],
      [
        "▁carrots",
        -9.66125774383545
      ],
      [
        "▁sharing",
        -9.661691665649414
      ],
      [
        "▁teach",
        -9.663725852966309
      ],
      [
        "▁stood",
        -9.66784381866455
      ],
      [
        "▁Even",
        -9.667888641357422
      ],
      [
        "▁bell",
        -9.668380737304688
      ],
      [
        "▁Whil",
        -9.668517112731934
      ],
      [
        "▁moon",
        -9.668888092041016
      ],
      [
        "▁knocked",
        -9.669050216674805
      ],
      [
        "▁splash",
        -9.670975685119629
      ],
      [
        "▁creative",
        -9.672091484069824
      ],
      [
        "r",
        -9.672529220581055
      ],
      [
        "▁How",
        -9.673215866088867
      ],
      [
        "▁line",
        -9.673696517944336
      ],
      [
        "▁hears",
        -9.675909042358398
      ],
      [
        "Please",
        -9.678223609924316
      ],
      [
        "▁tightly",
        -9.678364753723145
      ],
      [
        "▁ashamed",
        -9.680264472961426
      ],
      [
        "▁honest",
        -9.680580139160156
      ],
      [
        "▁meadow",
        -9.68192195892334
      ],
      [
        "▁almost",
        -9.682450294494629
      ],
      [
        "▁plate",
        -9.683014869689941
      ],
      [
        "▁breath",
        -9.684652328491211
      ],
      [
        "▁understood",
        -9.68630599975586
      ],
      [
        "▁legs",
        -9.686609268188477
      ],
      [
        "▁empty",
        -9.687139511108398
      ],
      [
        "▁sticks",
        -9.688172340393066
      ],
      [
        "▁grew",
        -9.68842887878418
      ],
      [
        "▁save",
        -9.688633918762207
      ],
      [
        "▁gray",
        -9.69192886352539
      ],
      [
        "▁tells",
        -9.692848205566406
      ],
      [
        "▁Don",
        -9.693700790405273
      ],
      [
        "▁Why",
        -9.699021339416504
      ],
      [
        "▁Leo",
        -9.700801849365234
      ],
      [
        "▁meant",
        -9.703317642211914
      ],
      [
        "▁hours",
        -9.70373249053955
      ],
      [
        "▁stand",
        -9.70622444152832
      ],
      [
        "▁carried",
        -9.708283424377441
      ],
      [
        "▁kitten",
        -9.708903312683105
      ],
      [
        "▁band",
        -9.709831237792969
      ],
      [
        "▁lock",
        -9.71038818359375
      ],
      [
        "▁yelled",
        -9.710392951965332
      ],
      [
        "▁disappointed",
        -9.714344024658203
      ],
      [
        "▁sheep",
        -9.715277671813965
      ],
      [
        "▁snacks",
        -9.718506813049316
      ],
      [
        "▁nods",
        -9.719245910644531
      ],
      [
        "▁prince",
        -9.72006893157959
      ],
      [
        "▁block",
        -9.72021198272705
      ],
      [
        "▁generous",
        -9.722396850585938
      ],
      [
        "▁cook",
        -9.724709510803223
      ],
      [
        "▁sparkly",
        -9.725337982177734
      ],
      [
        "▁bored",
        -9.728936195373535
      ],
      [
        "▁mountain",
        -9.729218482971191
      ],
      [
        "▁hospital",
        -9.731072425842285
      ],
      [
        "▁bath",
        -9.735477447509766
      ],
      [
        "▁easy",
        -9.736473083496094
      ],
      [
        "▁polite",
        -9.736536026000977
      ],
      [
        "▁hidden",
        -9.738067626953125
      ],
      [
        "▁taught",
        -9.738067626953125
      ],
      [
        "▁these",
        -9.739206314086914
      ],
      [
        "▁ant",
        -9.739331245422363
      ],
      [
        "▁standing",
        -9.740252494812012
      ],
      [
        "▁waves",
        -9.740501403808594
      ],
      [
        "▁minutes",
        -9.741052627563477
      ],
      [
        "▁sail",
        -9.741557121276855
      ],
      [
        "▁crab",
        -9.742307662963867
      ],
      [
        "▁gate",
        -9.74246883392334
      ],
      [
        "▁knowing",
        -9.745670318603516
      ],
      [
        "▁plants",
        -9.747096061706543
      ],
      [
        "▁mysterious",
        -9.74752426147461
      ],
      [
        "▁determined",
        -9.748007774353027
      ],
      [
        "▁shore",
        -9.749777793884277
      ],
      [
        "▁thankful",
        -9.750290870666504
      ],
      [
        "▁sighed",
        -9.751276969909668
      ],
      [
        "▁returned",
        -9.751672744750977
      ],
      [
        "▁scarf",
        -9.75212574005127
      ],
      [
        "▁present",
        -9.7523832321167
      ],
      [
        "▁pizza",
        -9.753419876098633
      ],
      [
        "▁group",
        -9.753744125366211
      ],
      [
        "▁drew",
        -9.754392623901367
      ],
      [
        "▁wolf",
        -9.754716873168945
      ],
      [
        "▁bedroom",
        -9.7550048828125
      ],
      [
        "▁puzzle",
        -9.757335662841797
      ],
      [
        "Stop",
        -9.757441520690918
      ],
      [
        "▁hop",
        -9.762306213378906
      ],
      [
        "▁finger",
        -9.762602806091309
      ],
      [
        "▁passed",
        -9.764971733093262
      ],
      [
        "▁sleepy",
        -9.767532348632812
      ],
      [
        "▁frustrated",
        -9.767614364624023
      ],
      [
        "▁spicy",
        -9.769588470458984
      ],
      [
        "▁worm",
        -9.770291328430176
      ],
      [
        "▁powerful",
        -9.771119117736816
      ],
      [
        "▁ship",
        -9.771208763122559
      ],
      [
        "▁closet",
        -9.772226333618164
      ],
      [
        "▁bridge",
        -9.77686882019043
      ],
      [
        "▁ring",
        -9.781047821044922
      ],
      [
        "▁caterpillar",
        -9.782430648803711
      ],
      [
        "▁kissed",
        -9.782944679260254
      ],
      [
        "▁wood",
        -9.783201217651367
      ],
      [
        "▁gathered",
        -9.783854484558105
      ],
      [
        "▁poor",
        -9.784600257873535
      ],
      [
        "▁messy",
        -9.788729667663574
      ],
      [
        "▁sandwich",
        -9.790010452270508
      ],
      [
        "▁grumpy",
        -9.791055679321289
      ],
      [
        "▁Mark",
        -9.792409896850586
      ],
      [
        "Where",
        -9.793695449829102
      ],
      [
        "▁O",
        -9.79904556274414
      ],
      [
        "▁sour",
        -9.799384117126465
      ],
      [
        "▁fancy",
        -9.799419403076172
      ],
      [
        "▁chest",
        -9.79958724975586
      ],
      [
        "▁answered",
        -9.800068855285645
      ],
      [
        "▁cries",
        -9.802305221557617
      ],
      [
        "▁Susie",
        -9.803287506103516
      ],
      [
        "Sorry",
        -9.804317474365234
      ],
      [
        "a",
        -9.809621810913086
      ],
      [
        "▁yourself",
        -9.809905052185059
      ],
      [
        "▁hopping",
        -9.80991268157959
      ],
      [
        "▁pig",
        -9.811633110046387
      ],
      [
        "Are",
        -9.813291549682617
      ],
      [
        "▁ugly",
        -9.817389488220215
      ],
      [
        "▁spin",
        -9.819253921508789
      ],
      [
        "▁scissors",
        -9.820329666137695
      ],
      [
        "▁often",
        -9.820427894592285
      ],
      [
        "▁deer",
        -9.82198715209961
      ],
      [
        "▁tears",
        -9.822257995605469
      ],
      [
        "▁middle",
        -9.825887680053711
      ],
      [
        "▁Go",
        -9.826162338256836
      ],
      [
        "▁card",
        -9.826658248901367
      ],
      [
        "▁Today",
        -9.827046394348145
      ],
      [
        "▁cage",
        -9.827980995178223
      ],
      [
        "▁mummy",
        -9.828155517578125
      ],
      [
        "▁lit",
        -9.829440116882324
      ],
      [
        "▁ok",
        -9.830133438110352
      ],
      [
        "▁expensive",
        -9.830251693725586
      ],
      [
        "▁boring",
        -9.830951690673828
      ],
      [
        "▁taken",
        -9.831670761108398
      ],
      [
        "▁working",
        -9.832441329956055
      ],
      [
        "▁pleased",
        -9.832940101623535
      ],
      [
        "▁mail",
        -9.833876609802246
      ],
      [
        "▁true",
        -9.83454704284668
      ],
      [
        "▁saved",
        -9.834660530090332
      ],
      [
        "▁excitement",
        -9.835162162780762
      ],
      [
        "▁vase",
        -9.835601806640625
      ],
      [
        "▁wagged",
        -9.835865020751953
      ],
      [
        "▁mix",
        -9.836652755737305
      ],
      [
        "▁vegetables",
        -9.84450626373291
      ],
      [
        "▁shell",
        -9.845479011535645
      ],
      [
        "▁nervous",
        -9.848159790039062
      ],
      [
        "▁asking",
        -9.84925365447998
      ],
      [
        "▁police",
        -9.850656509399414
      ],
      [
        "▁tie",
        -9.851346015930176
      ],
      [
        "Ben",
        -9.852463722229004
      ],
      [
        "▁rocket",
        -9.854486465454102
      ],
      [
        "▁sugar",
        -9.856663703918457
      ],
      [
        "▁brush",
        -9.856683731079102
      ],
      [
        "▁giggled",
        -9.857744216918945
      ],
      [
        "▁days",
        -9.858161926269531
      ],
      [
        "▁leg",
        -9.858461380004883
      ],
      [
        "▁seek",
        -9.858942031860352
      ],
      [
        "▁mistake",
        -9.860458374023438
      ],
      [
        "▁Bobby",
        -9.862746238708496
      ],
      [
        "▁net",
        -9.862878799438477
      ],
      [
        "▁become",
        -9.867154121398926
      ],
      [
        "▁dancing",
        -9.867499351501465
      ],
      [
        "▁glass",
        -9.86782455444336
      ],
      [
        "▁pain",
        -9.868680953979492
      ],
      [
        "▁Mandy",
        -9.868772506713867
      ],
      [
        "▁packed",
        -9.869081497192383
      ],
      [
        "▁crown",
        -9.871068954467773
      ],
      [
        "▁comfortable",
        -9.872416496276855
      ],
      [
        "▁number",
        -9.876022338867188
      ],
      [
        "▁test",
        -9.877886772155762
      ],
      [
        "▁bone",
        -9.879528045654297
      ],
      [
        "▁especially",
        -9.879555702209473
      ],
      [
        "itty",
        -9.881462097167969
      ],
      [
        "▁feed",
        -9.882701873779297
      ],
      [
        "▁picks",
        -9.883169174194336
      ],
      [
        "▁Eventually",
        -9.88471508026123
      ],
      [
        "▁lying",
        -9.885918617248535
      ],
      [
        "▁roll",
        -9.886137008666992
      ],
      [
        "▁distance",
        -9.890830039978027
      ],
      [
        "▁splashed",
        -9.89222240447998
      ],
      [
        "▁medicine",
        -9.892224311828613
      ],
      [
        "▁lose",
        -9.892914772033691
      ],
      [
        "▁sweetie",
        -9.89389705657959
      ],
      [
        "▁zoom",
        -9.894307136535645
      ],
      [
        "▁change",
        -9.894746780395508
      ],
      [
        "▁drawing",
        -9.896827697753906
      ],
      [
        "▁tent",
        -9.898260116577148
      ],
      [
        "▁Some",
        -9.899961471557617
      ],
      [
        "▁bake",
        -9.90013599395752
      ],
      [
        "ose",
        -9.900230407714844
      ],
      [
        "▁eggs",
        -9.900622367858887
      ],
      [
        "▁disappeared",
        -9.90505313873291
      ],
      [
        "▁glue",
        -9.905920028686523
      ],
      [
        "▁fake",
        -9.907227516174316
      ],
      [
        "▁moving",
        -9.912055969238281
      ],
      [
        "▁feathers",
        -9.913313865661621
      ],
      [
        "▁licked",
        -9.914857864379883
      ],
      [
        "▁rich",
        -9.916858673095703
      ],
      [
        "▁fruits",
        -9.917593955993652
      ],
      [
        "▁roar",
        -9.91773509979248
      ],
      [
        "▁calling",
        -9.919471740722656
      ],
      [
        "▁If",
        -9.920331954956055
      ],
      [
        "▁mirror",
        -9.920732498168945
      ],
      [
        "▁respect",
        -9.92198371887207
      ],
      [
        "▁playground",
        -9.922073364257812
      ],
      [
        "▁smelly",
        -9.922273635864258
      ],
      [
        "▁elderly",
        -9.92681884765625
      ],
      [
        "▁walks",
        -9.931198120117188
      ],
      [
        "Who",
        -9.93336009979248
      ],
      [
        "▁tape",
        -9.933815956115723
      ],
      [
        "▁bathroom",
        -9.93394660949707
      ],
      [
        "▁body",
        -9.935198783874512
      ],
      [
        "▁wrote",
        -9.93626880645752
      ],
      [
        "▁pay",
        -9.93778133392334
      ],
      [
        "im",
        -9.938762664794922
      ],
      [
        "▁map",
        -9.940278053283691
      ],
      [
        "▁nod",
        -9.940901756286621
      ],
      [
        "▁fluffy",
        -9.940951347351074
      ],
      [
        "▁board",
        -9.94192123413086
      ],
      [
        "▁questions",
        -9.943990707397461
      ],
      [
        "▁dig",
        -9.94417667388916
      ],
      [
        "▁noisy",
        -9.945746421813965
      ],
      [
        "▁rare",
        -9.946434020996094
      ],
      [
        "▁father",
        -9.947911262512207
      ],
      [
        "▁eager",
        -9.949387550354004
      ],
      [
        "▁skipped",
        -9.949784278869629
      ],
      [
        "▁lazy",
        -9.95007610321045
      ],
      [
        "▁Pete",
        -9.950353622436523
      ],
      [
        "▁Ellie",
        -9.950712203979492
      ],
      [
        "▁incredible",
        -9.950766563415527
      ],
      [
        "▁fill",
        -9.953546524047852
      ],
      [
        "▁match",
        -9.953661918640137
      ],
      [
        "▁No",
        -9.954916000366211
      ],
      [
        "▁famous",
        -9.955811500549316
      ],
      [
        "▁End",
        -9.956604957580566
      ],
      [
        "▁ruined",
        -9.95744800567627
      ],
      [
        "▁stones",
        -9.958045959472656
      ],
      [
        "▁live",
        -9.95805549621582
      ],
      [
        "▁Ella",
        -9.958742141723633
      ],
      [
        "▁hose",
        -9.960586547851562
      ],
      [
        "▁whale",
        -9.960981369018555
      ],
      [
        "▁gun",
        -9.961390495300293
      ],
      [
        "▁wheel",
        -9.962478637695312
      ],
      [
        "▁drank",
        -9.962677955627441
      ],
      [
        "▁covered",
        -9.963778495788574
      ],
      [
        "▁neck",
        -9.967582702636719
      ],
      [
        "▁decide",
        -9.969266891479492
      ],
      [
        "▁weak",
        -9.970675468444824
      ],
      [
        "▁juicy",
        -9.971302032470703
      ],
      [
        "▁pie",
        -9.972002029418945
      ],
      [
        "▁pillow",
        -9.972185134887695
      ],
      [
        "▁chicken",
        -9.972386360168457
      ],
      [
        "▁sailed",
        -9.973699569702148
      ],
      [
        "▁eye",
        -9.977599143981934
      ],
      [
        "▁lamp",
        -9.978580474853516
      ],
      [
        "▁joke",
        -9.979546546936035
      ],
      [
        "▁barn",
        -9.979813575744629
      ],
      [
        "▁Bobo",
        -9.979866027832031
      ],
      [
        "▁cross",
        -9.980232238769531
      ],
      [
        "▁towel",
        -9.98074722290039
      ],
      [
        "▁realised",
        -9.981228828430176
      ],
      [
        "▁cleaned",
        -9.982691764831543
      ],
      [
        "▁flag",
        -9.98361873626709
      ],
      [
        "▁offered",
        -9.985686302185059
      ],
      [
        "▁queen",
        -9.985987663269043
      ],
      [
        "▁clear",
        -9.98604965209961
      ],
      [
        "▁Bella",
        -9.990469932556152
      ],
      [
        "▁tag",
        -9.990729331970215
      ],
      [
        "Help",
        -9.990934371948242
      ],
      [
        "▁balance",
        -9.991580963134766
      ],
      [
        "▁fine",
        -9.99195384979248
      ],
      [
        "▁branches",
        -9.992657661437988
      ],
      [
        "▁lifted",
        -9.993096351623535
      ],
      [
        "▁shake",
        -9.995604515075684
      ],
      [
        "▁loyal",
        -9.995668411254883
      ],
      [
        "▁kid",
        -9.996644020080566
      ],
      [
        "▁tiger",
        -9.999460220336914
      ],
      [
        "▁organized",
        -10.00031852722168
      ],
      [
        "▁clown",
        -10.000503540039062
      ],
      [
        "▁difficult",
        -10.003231048583984
      ],
      [
        "▁discovered",
        -10.003435134887695
      ],
      [
        "▁happening",
        -10.003639221191406
      ],
      [
        "▁wonder",
        -10.005075454711914
      ],
      [
        "Now",
        -10.005810737609863
      ],
      [
        "▁bottom",
        -10.007608413696289
      ],
      [
        "▁colourful",
        -10.00814437866211
      ],
      [
        "▁butter",
        -10.010115623474121
      ],
      [
        "▁adventurous",
        -10.011270523071289
      ],
      [
        "▁unique",
        -10.012109756469727
      ],
      [
        "▁content",
        -10.01241683959961
      ],
      [
        "▁Fred",
        -10.013154983520508
      ],
      [
        "▁coins",
        -10.014120101928711
      ],
      [
        "▁jealous",
        -10.015998840332031
      ],
      [
        "se",
        -10.01836109161377
      ],
      [
        "▁managed",
        -10.018478393554688
      ],
      [
        "▁shows",
        -10.01878833770752
      ],
      [
        "▁drum",
        -10.019486427307129
      ],
      [
        "▁word",
        -10.01991081237793
      ],
      [
        "▁pointing",
        -10.021196365356445
      ],
      [
        "▁measure",
        -10.021529197692871
      ],
      [
        "▁gets",
        -10.022045135498047
      ],
      [
        "▁knight",
        -10.023326873779297
      ],
      [
        "▁check",
        -10.024449348449707
      ],
      [
        "▁tough",
        -10.024466514587402
      ],
      [
        "▁island",
        -10.024556159973145
      ],
      [
        "▁search",
        -10.025999069213867
      ],
      [
        "▁weird",
        -10.026057243347168
      ],
      [
        "▁ones",
        -10.0280179977417
      ],
      [
        "▁chase",
        -10.030983924865723
      ],
      [
        "▁once",
        -10.031113624572754
      ],
      [
        "▁smoke",
        -10.033315658569336
      ],
      [
        "▁circle",
        -10.034218788146973
      ],
      [
        "▁garage",
        -10.034280776977539
      ],
      [
        "▁thin",
        -10.034324645996094
      ],
      [
        "▁crawled",
        -10.035174369812012
      ],
      [
        "▁balloons",
        -10.036927223205566
      ],
      [
        "▁saying",
        -10.037442207336426
      ],
      [
        "▁soap",
        -10.037476539611816
      ],
      [
        "▁Blue",
        -10.038958549499512
      ],
      [
        "▁sword",
        -10.041881561279297
      ],
      [
        "▁knife",
        -10.04333209991455
      ],
      [
        "▁added",
        -10.043938636779785
      ],
      [
        "▁extra",
        -10.043981552124023
      ],
      [
        "▁learning",
        -10.044373512268066
      ],
      [
        "▁Mrs",
        -10.04538631439209
      ],
      [
        "▁bubbles",
        -10.045768737792969
      ],
      [
        "▁favourite",
        -10.047562599182129
      ],
      [
        "▁mighty",
        -10.047852516174316
      ],
      [
        "▁edge",
        -10.04865837097168
      ],
      [
        "▁kindness",
        -10.050027847290039
      ],
      [
        "▁harder",
        -10.050270080566406
      ],
      [
        "▁figure",
        -10.050568580627441
      ],
      [
        "▁lift",
        -10.05091381072998
      ],
      [
        "▁Grandpa",
        -10.05186939239502
      ],
      [
        "▁berries",
        -10.052085876464844
      ],
      [
        "▁dizzy",
        -10.053668975830078
      ],
      [
        "▁belonged",
        -10.054214477539062
      ],
      [
        "▁bald",
        -10.055310249328613
      ],
      [
        "▁thick",
        -10.05599594116211
      ],
      [
        "▁already",
        -10.056187629699707
      ],
      [
        "▁needs",
        -10.056391716003418
      ],
      [
        "▁enjoying",
        -10.056404113769531
      ],
      [
        "▁market",
        -10.060253143310547
      ],
      [
        "▁normal",
        -10.060361862182617
      ],
      [
        "▁guitar",
        -10.066658020019531
      ],
      [
        "▁banana",
        -10.06712818145752
      ],
      [
        "▁Tweety",
        -10.0681791305542
      ],
      [
        "▁foot",
        -10.06876277923584
      ],
      [
        "▁dinosaur",
        -10.069924354553223
      ],
      [
        "▁log",
        -10.071229934692383
      ],
      [
        "▁unusual",
        -10.071434020996094
      ],
      [
        "▁team",
        -10.071460723876953
      ],
      [
        "▁louder",
        -10.07181453704834
      ],
      [
        "▁grown",
        -10.072041511535645
      ],
      [
        "▁impressed",
        -10.07210922241211
      ],
      [
        "▁belong",
        -10.072614669799805
      ],
      [
        "▁paw",
        -10.073515892028809
      ],
      [
        "▁swan",
        -10.074190139770508
      ],
      [
        "▁spun",
        -10.076682090759277
      ],
      [
        "▁choose",
        -10.076794624328613
      ],
      [
        "▁wand",
        -10.076807975769043
      ],
      [
        "▁wrapped",
        -10.07858943939209
      ],
      [
        "▁cheerful",
        -10.078604698181152
      ],
      [
        "▁four",
        -10.078686714172363
      ],
      [
        "▁giving",
        -10.078920364379883
      ],
      [
        "▁ears",
        -10.08032512664795
      ],
      [
        "▁boxes",
        -10.081429481506348
      ],
      [
        "▁circles",
        -10.081949234008789
      ],
      [
        "▁loudly",
        -10.082059860229492
      ],
      [
        "▁dogs",
        -10.082409858703613
      ],
      [
        "▁turtle",
        -10.082661628723145
      ],
      [
        "▁proudly",
        -10.083982467651367
      ],
      [
        "▁bossy",
        -10.08413028717041
      ],
      [
        "▁against",
        -10.086199760437012
      ],
      [
        "Well",
        -10.086837768554688
      ],
      [
        "Here",
        -10.087469100952148
      ],
      [
        "▁miss",
        -10.087850570678711
      ],
      [
        "▁successful",
        -10.08874797821045
      ],
      [
        "▁invited",
        -10.089491844177246
      ],
      [
        "▁balls",
        -10.090787887573242
      ],
      [
        "▁trunk",
        -10.09088134765625
      ],
      [
        "p",
        -10.09393310546875
      ],
      [
        "▁movie",
        -10.094064712524414
      ],
      [
        "▁escape",
        -10.095029830932617
      ],
      [
        "▁step",
        -10.09588623046875
      ],
      [
        "A",
        -10.096658706665039
      ],
      [
        "▁dreamed",
        -10.097331047058105
      ],
      [
        "▁crayon",
        -10.097395896911621
      ],
      [
        "▁hurts",
        -10.097450256347656
      ],
      [
        "▁painting",
        -10.097519874572754
      ],
      [
        "▁egg",
        -10.097845077514648
      ],
      [
        "▁pen",
        -10.098068237304688
      ],
      [
        "▁brilliant",
        -10.10080623626709
      ],
      [
        "▁wake",
        -10.101088523864746
      ],
      [
        "▁hats",
        -10.101409912109375
      ],
      [
        "Be",
        -10.101545333862305
      ],
      [
        "▁ear",
        -10.101787567138672
      ],
      [
        "▁birdie",
        -10.102191925048828
      ],
      [
        "▁laughs",
        -10.10356616973877
      ],
      [
        "▁trust",
        -10.105244636535645
      ],
      [
        "▁sight",
        -10.105463027954102
      ],
      [
        "▁frightened",
        -10.105863571166992
      ],
      [
        "▁office",
        -10.106310844421387
      ],
      [
        "▁notice",
        -10.107297897338867
      ],
      [
        "▁delicate",
        -10.108747482299805
      ],
      [
        "▁Lola",
        -10.109253883361816
      ],
      [
        "▁safely",
        -10.109416007995605
      ],
      [
        "▁yours",
        -10.110934257507324
      ],
      [
        "▁breakfast",
        -10.111525535583496
      ],
      [
        "▁fat",
        -10.112151145935059
      ],
      [
        "▁shout",
        -10.113155364990234
      ],
      [
        "▁space",
        -10.113612174987793
      ],
      [
        "▁stubborn",
        -10.113845825195312
      ],
      [
        "▁ancient",
        -10.114426612854004
      ],
      [
        "▁slipped",
        -10.115009307861328
      ],
      [
        "▁city",
        -10.116056442260742
      ],
      [
        "▁clay",
        -10.116170883178711
      ],
      [
        "▁nicely",
        -10.117081642150879
      ],
      [
        "▁shape",
        -10.117568016052246
      ],
      [
        "▁Nemo",
        -10.117568969726562
      ],
      [
        "▁nosy",
        -10.117703437805176
      ],
      [
        "▁valuable",
        -10.118152618408203
      ],
      [
        "▁happiness",
        -10.118502616882324
      ],
      [
        "▁clap",
        -10.119375228881836
      ],
      [
        "▁skin",
        -10.11943244934082
      ],
      [
        "ting",
        -10.12020206451416
      ],
      [
        "▁Dave",
        -10.120936393737793
      ],
      [
        "h",
        -10.12462043762207
      ],
      [
        "▁mixed",
        -10.127119064331055
      ],
      [
        "▁rough",
        -10.12729263305664
      ],
      [
        "▁brothers",
        -10.12885856628418
      ],
      [
        "▁wagon",
        -10.130243301391602
      ],
      [
        "▁bounce",
        -10.130538940429688
      ],
      [
        "▁My",
        -10.130938529968262
      ],
      [
        "c",
        -10.130992889404297
      ],
      [
        "▁borrow",
        -10.13188648223877
      ],
      [
        "▁collect",
        -10.131991386413574
      ],
      [
        "▁horn",
        -10.132058143615723
      ],
      [
        "▁foolish",
        -10.132131576538086
      ],
      [
        "▁buttons",
        -10.132771492004395
      ],
      [
        "▁grandpa",
        -10.132996559143066
      ],
      [
        "▁walls",
        -10.134878158569336
      ],
      [
        "▁kick",
        -10.136232376098633
      ],
      [
        "▁trucks",
        -10.13749885559082
      ],
      [
        "▁S",
        -10.139156341552734
      ],
      [
        "▁act",
        -10.139211654663086
      ],
      [
        "▁icy",
        -10.139849662780762
      ],
      [
        "▁exclaimed",
        -10.142236709594727
      ],
      [
        "œLet",
        -10.143983840942383
      ],
      [
        "▁fridge",
        -10.148229598999023
      ],
      [
        "▁dreams",
        -10.148969650268555
      ],
      [
        "▁fierce",
        -10.149697303771973
      ],
      [
        "▁son",
        -10.15012264251709
      ],
      [
        "▁useful",
        -10.150947570800781
      ],
      [
        "▁tools",
        -10.151284217834473
      ],
      [
        "▁falls",
        -10.152626037597656
      ],
      [
        "▁means",
        -10.153157234191895
      ],
      [
        "▁locked",
        -10.155330657958984
      ],
      [
        "▁dead",
        -10.155471801757812
      ],
      [
        "▁wiped",
        -10.156052589416504
      ],
      [
        "▁excitedly",
        -10.157657623291016
      ],
      [
        "▁sounded",
        -10.158151626586914
      ],
      [
        "▁dove",
        -10.158235549926758
      ],
      [
        "▁gold",
        -10.158235549926758
      ],
      [
        "▁thoughtful",
        -10.158490180969238
      ],
      [
        "▁suggested",
        -10.158648490905762
      ],
      [
        "▁fountain",
        -10.163737297058105
      ],
      [
        "▁shells",
        -10.164525032043457
      ],
      [
        "▁Ducky",
        -10.164727210998535
      ],
      [
        "▁poured",
        -10.165114402770996
      ],
      [
        "▁rose",
        -10.165251731872559
      ],
      [
        "▁hammer",
        -10.165937423706055
      ],
      [
        "▁clock",
        -10.166679382324219
      ],
      [
        "▁obedient",
        -10.167186737060547
      ],
      [
        "▁stove",
        -10.168387413024902
      ],
      [
        "▁themselves",
        -10.170475006103516
      ],
      [
        "▁explored",
        -10.170856475830078
      ],
      [
        "▁witch",
        -10.171544075012207
      ],
      [
        "▁To",
        -10.171731948852539
      ],
      [
        "▁enormous",
        -10.172073364257812
      ],
      [
        "▁raced",
        -10.174160957336426
      ],
      [
        "▁above",
        -10.17527961730957
      ],
      [
        "▁goat",
        -10.175591468811035
      ],
      [
        "▁pass",
        -10.176600456237793
      ],
      [
        "▁scare",
        -10.177082061767578
      ],
      [
        "▁roof",
        -10.177258491516113
      ],
      [
        "▁dough",
        -10.179415702819824
      ],
      [
        "▁showing",
        -10.17984676361084
      ],
      [
        "▁playful",
        -10.181931495666504
      ],
      [
        "▁bushes",
        -10.182559967041016
      ],
      [
        "▁stumbled",
        -10.183106422424316
      ],
      [
        "▁smaller",
        -10.184353828430176
      ],
      [
        "▁dependable",
        -10.184836387634277
      ],
      [
        "▁spoiled",
        -10.18505859375
      ],
      [
        "▁rode",
        -10.186500549316406
      ],
      [
        "▁Ann",
        -10.18734359741211
      ],
      [
        "▁spinning",
        -10.188339233398438
      ],
      [
        "▁built",
        -10.188458442687988
      ],
      [
        "▁Whenever",
        -10.188539505004883
      ],
      [
        "▁practice",
        -10.190414428710938
      ],
      [
        "▁George",
        -10.190505027770996
      ],
      [
        "▁lights",
        -10.190751075744629
      ],
      [
        "▁solve",
        -10.191927909851074
      ],
      [
        "▁cone",
        -10.192496299743652
      ],
      [
        "▁counted",
        -10.193623542785645
      ],
      [
        "▁delighted",
        -10.1949462890625
      ],
      [
        "▁print",
        -10.195036888122559
      ],
      [
        "▁whispered",
        -10.197101593017578
      ],
      [
        "▁shone",
        -10.199152946472168
      ],
      [
        "Me",
        -10.199748039245605
      ],
      [
        "▁admired",
        -10.20016860961914
      ],
      [
        "▁Bear",
        -10.201388359069824
      ],
      [
        "▁pan",
        -10.202652931213379
      ],
      [
        "▁using",
        -10.20339298248291
      ],
      [
        "▁kicked",
        -10.204463005065918
      ],
      [
        "▁terrible",
        -10.204734802246094
      ],
      [
        "▁fingers",
        -10.20551872253418
      ],
      [
        "▁independent",
        -10.206048965454102
      ],
      [
        "▁fragile",
        -10.20628547668457
      ],
      [
        "▁handed",
        -10.206975936889648
      ],
      [
        "▁jam",
        -10.207157135009766
      ],
      [
        "▁aunt",
        -10.207813262939453
      ],
      [
        "▁reminded",
        -10.207897186279297
      ],
      [
        "▁brightly",
        -10.20838451385498
      ],
      [
        "▁Your",
        -10.209001541137695
      ],
      [
        "es",
        -10.209267616271973
      ],
      [
        "▁bitter",
        -10.209844589233398
      ],
      [
        "▁stronger",
        -10.210509300231934
      ],
      [
        "▁zip",
        -10.211091995239258
      ],
      [
        "▁chose",
        -10.21296501159668
      ],
      [
        "▁jog",
        -10.213282585144043
      ],
      [
        "▁spaghetti",
        -10.21509075164795
      ],
      [
        "▁tummy",
        -10.21509075164795
      ],
      [
        "▁changed",
        -10.215202331542969
      ],
      [
        "▁original",
        -10.215348243713379
      ],
      [
        "▁sauce",
        -10.217278480529785
      ],
      [
        "▁bags",
        -10.217574119567871
      ],
      [
        "▁pencil",
        -10.217592239379883
      ],
      [
        "▁spend",
        -10.217792510986328
      ],
      [
        "o",
        -10.219295501708984
      ],
      [
        "▁unknown",
        -10.220503807067871
      ],
      [
        "▁jolly",
        -10.220634460449219
      ],
      [
        "▁finding",
        -10.22066593170166
      ],
      [
        "▁hero",
        -10.220902442932129
      ],
      [
        "▁allowed",
        -10.22094440460205
      ],
      [
        "▁toast",
        -10.221634864807129
      ],
      [
        "▁umbrella",
        -10.222444534301758
      ],
      [
        "▁cart",
        -10.222538948059082
      ],
      [
        "▁ow",
        -10.223457336425781
      ],
      [
        "▁parrot",
        -10.225815773010254
      ],
      [
        "œYes",
        -10.226544380187988
      ],
      [
        "▁Toby",
        -10.22868537902832
      ],
      [
        "▁cleaning",
        -10.229381561279297
      ],
      [
        "▁beak",
        -10.229511260986328
      ],
      [
        "▁those",
        -10.229851722717285
      ],
      [
        "▁scream",
        -10.230720520019531
      ],
      [
        "▁shark",
        -10.231578826904297
      ],
      [
        "▁hairy",
        -10.231719017028809
      ],
      [
        "▁wrap",
        -10.2326078414917
      ],
      [
        "ve",
        -10.232833862304688
      ],
      [
        "▁pirate",
        -10.232893943786621
      ],
      [
        "▁leaving",
        -10.233248710632324
      ],
      [
        "▁tank",
        -10.233248710632324
      ],
      [
        "▁popcorn",
        -10.233379364013672
      ],
      [
        "▁power",
        -10.233477592468262
      ],
      [
        "▁prize",
        -10.233510971069336
      ],
      [
        "▁joined",
        -10.233718872070312
      ],
      [
        "▁pumpkin",
        -10.235799789428711
      ],
      [
        "▁wealthy",
        -10.236932754516602
      ],
      [
        "▁bees",
        -10.237028121948242
      ],
      [
        "▁metal",
        -10.237039566040039
      ],
      [
        "▁reliable",
        -10.239155769348145
      ],
      [
        "▁gasped",
        -10.239705085754395
      ],
      [
        "▁painted",
        -10.24005126953125
      ],
      [
        "▁rat",
        -10.24092960357666
      ],
      [
        "▁engine",
        -10.24100112915039
      ],
      [
        "▁doesn",
        -10.241978645324707
      ],
      [
        "▁stream",
        -10.24389362335205
      ],
      [
        "▁delight",
        -10.245390892028809
      ],
      [
        "▁spray",
        -10.245948791503906
      ],
      [
        "œWhat",
        -10.247092247009277
      ],
      [
        "▁view",
        -10.248281478881836
      ],
      [
        "▁picking",
        -10.248942375183105
      ],
      [
        "▁clumsy",
        -10.249212265014648
      ],
      [
        "▁yarn",
        -10.249478340148926
      ],
      [
        "▁create",
        -10.2495698928833
      ],
      [
        "▁barber",
        -10.2513427734375
      ],
      [
        "▁serious",
        -10.252179145812988
      ],
      [
        "▁yet",
        -10.252275466918945
      ],
      [
        "▁sink",
        -10.252553939819336
      ],
      [
        "▁march",
        -10.252861976623535
      ],
      [
        "▁stupid",
        -10.25294303894043
      ],
      [
        "▁Bill",
        -10.253046989440918
      ],
      [
        "▁guilty",
        -10.255352020263672
      ],
      [
        "▁kinds",
        -10.256204605102539
      ],
      [
        "▁forth",
        -10.256851196289062
      ],
      [
        "▁Mike",
        -10.257932662963867
      ],
      [
        "▁stairs",
        -10.259051322937012
      ],
      [
        "▁chew",
        -10.259560585021973
      ],
      [
        "▁advice",
        -10.260042190551758
      ],
      [
        "old",
        -10.262442588806152
      ],
      [
        "▁Sophie",
        -10.263042449951172
      ],
      [
        "▁Polly",
        -10.264084815979004
      ],
      [
        "▁modern",
        -10.2642183303833
      ],
      [
        "▁half",
        -10.266242027282715
      ],
      [
        "▁guard",
        -10.26693058013916
      ],
      [
        "▁salad",
        -10.26773452758789
      ],
      [
        "▁searching",
        -10.268878936767578
      ],
      [
        "▁rushed",
        -10.269454002380371
      ],
      [
        "▁cover",
        -10.269610404968262
      ],
      [
        "▁class",
        -10.270304679870605
      ],
      [
        "▁sleeping",
        -10.271073341369629
      ],
      [
        "▁dolphin",
        -10.271316528320312
      ],
      [
        "▁thinking",
        -10.271432876586914
      ],
      [
        "▁week",
        -10.271723747253418
      ],
      [
        "▁holds",
        -10.272165298461914
      ],
      [
        "▁Joey",
        -10.273209571838379
      ],
      [
        "▁telling",
        -10.27469253540039
      ],
      [
        "▁low",
        -10.275359153747559
      ],
      [
        "▁angel",
        -10.276535987854004
      ],
      [
        "▁library",
        -10.276989936828613
      ],
      [
        "▁hay",
        -10.278432846069336
      ],
      [
        "œIt",
        -10.279178619384766
      ],
      [
        "▁patch",
        -10.280975341796875
      ],
      [
        "▁sparkled",
        -10.282977104187012
      ],
      [
        "▁friendship",
        -10.283892631530762
      ],
      [
        "▁knows",
        -10.28410530090332
      ],
      [
        "▁camera",
        -10.284257888793945
      ],
      [
        "▁dull",
        -10.285503387451172
      ],
      [
        "▁washed",
        -10.285658836364746
      ],
      [
        "▁missing",
        -10.285682678222656
      ],
      [
        "▁graceful",
        -10.286097526550293
      ],
      [
        "l",
        -10.28663444519043
      ],
      [
        "▁beetle",
        -10.28702163696289
      ],
      [
        "▁bull",
        -10.288127899169922
      ],
      [
        "▁add",
        -10.28952407836914
      ],
      [
        "▁corn",
        -10.290316581726074
      ],
      [
        "▁carrying",
        -10.290552139282227
      ],
      [
        "▁goose",
        -10.290882110595703
      ],
      [
        "▁driving",
        -10.29228401184082
      ],
      [
        "▁ending",
        -10.292551040649414
      ],
      [
        "up",
        -10.292552947998047
      ],
      [
        "ate",
        -10.292669296264648
      ],
      [
        "▁boats",
        -10.293251991271973
      ],
      [
        "▁impressive",
        -10.293395042419434
      ],
      [
        "▁crazy",
        -10.29450798034668
      ],
      [
        "▁tied",
        -10.294779777526855
      ],
      [
        "▁Andy",
        -10.295470237731934
      ],
      [
        "▁jacket",
        -10.295577049255371
      ],
      [
        "▁shoot",
        -10.296061515808105
      ],
      [
        "▁seeds",
        -10.296248435974121
      ],
      [
        "▁nut",
        -10.29655933380127
      ],
      [
        "▁stage",
        -10.297713279724121
      ],
      [
        "Go",
        -10.299274444580078
      ],
      [
        "▁handle",
        -10.30031681060791
      ],
      [
        "▁regular",
        -10.301953315734863
      ],
      [
        "▁truth",
        -10.30345344543457
      ],
      [
        "▁ingredients",
        -10.304503440856934
      ],
      [
        "▁dreaming",
        -10.305760383605957
      ],
      [
        "▁flexible",
        -10.306264877319336
      ],
      [
        "▁careless",
        -10.306347846984863
      ],
      [
        "▁boys",
        -10.30674934387207
      ],
      [
        "▁popular",
        -10.306828498840332
      ],
      [
        "▁cupboard",
        -10.307260513305664
      ],
      [
        "▁meal",
        -10.307527542114258
      ],
      [
        "▁crocodile",
        -10.309226036071777
      ],
      [
        "▁ways",
        -10.309789657592773
      ],
      [
        "How",
        -10.31140422821045
      ],
      [
        "▁statue",
        -10.312131881713867
      ],
      [
        "▁shocked",
        -10.312543869018555
      ],
      [
        "▁nature",
        -10.312621116638184
      ],
      [
        "▁feather",
        -10.316624641418457
      ],
      [
        "▁early",
        -10.317143440246582
      ],
      [
        "▁desk",
        -10.318732261657715
      ],
      [
        "▁hang",
        -10.31923770904541
      ],
      [
        "▁lemon",
        -10.319863319396973
      ],
      [
        "▁sudden",
        -10.321062088012695
      ],
      [
        "▁imagined",
        -10.321142196655273
      ],
      [
        "▁reading",
        -10.322455406188965
      ],
      [
        "▁houses",
        -10.322751998901367
      ],
      [
        "▁stranger",
        -10.322920799255371
      ],
      [
        "▁Alex",
        -10.323806762695312
      ],
      [
        "▁warned",
        -10.324357986450195
      ],
      [
        "▁rubbed",
        -10.324451446533203
      ],
      [
        "▁Paul",
        -10.324583053588867
      ],
      [
        "▁hoop",
        -10.324931144714355
      ],
      [
        "▁mark",
        -10.326497077941895
      ],
      [
        "▁cheap",
        -10.326521873474121
      ],
      [
        "▁wheels",
        -10.327323913574219
      ],
      [
        "▁thunder",
        -10.328042030334473
      ],
      [
        "▁gum",
        -10.328329086303711
      ],
      [
        "▁flashlight",
        -10.328474998474121
      ],
      [
        "▁opens",
        -10.32868766784668
      ],
      [
        "▁fresh",
        -10.32895278930664
      ],
      [
        "▁envelope",
        -10.330059051513672
      ],
      [
        "▁Next",
        -10.330183029174805
      ],
      [
        "▁wing",
        -10.330214500427246
      ],
      [
        "▁bracelet",
        -10.333179473876953
      ],
      [
        "▁butterflies",
        -10.333669662475586
      ],
      [
        "▁scale",
        -10.334491729736328
      ],
      [
        "▁sadly",
        -10.335914611816406
      ],
      [
        "▁spilled",
        -10.336189270019531
      ],
      [
        "▁past",
        -10.338669776916504
      ],
      [
        "▁crane",
        -10.338892936706543
      ],
      [
        "▁ahead",
        -10.33947467803955
      ],
      [
        "▁trap",
        -10.339613914489746
      ],
      [
        "▁computer",
        -10.340494155883789
      ],
      [
        "▁lizard",
        -10.34078598022461
      ],
      [
        "▁B",
        -10.340788841247559
      ],
      [
        "▁value",
        -10.34309196472168
      ],
      [
        "▁peeked",
        -10.343575477600098
      ],
      [
        "▁pale",
        -10.345029830932617
      ],
      [
        "▁counting",
        -10.347028732299805
      ],
      [
        "▁penny",
        -10.34737491607666
      ],
      [
        "▁sunflower",
        -10.348466873168945
      ],
      [
        "b",
        -10.350525856018066
      ],
      [
        "▁mailbox",
        -10.351338386535645
      ],
      [
        "▁thirsty",
        -10.351338386535645
      ],
      [
        "▁anxious",
        -10.351923942565918
      ],
      [
        "aid",
        -10.352071762084961
      ],
      [
        "Ow",
        -10.353226661682129
      ],
      [
        "▁growing",
        -10.353544235229492
      ],
      [
        "See",
        -10.353774070739746
      ],
      [
        "▁sofa",
        -10.354432106018066
      ],
      [
        "▁rug",
        -10.354875564575195
      ],
      [
        "▁sorts",
        -10.35489559173584
      ],
      [
        "▁badly",
        -10.357352256774902
      ],
      [
        "▁diamond",
        -10.359456062316895
      ],
      [
        "▁spoke",
        -10.359990119934082
      ],
      [
        "▁turkey",
        -10.36065673828125
      ],
      [
        "▁refused",
        -10.362166404724121
      ],
      [
        "▁biggest",
        -10.362293243408203
      ],
      [
        "▁placed",
        -10.36307144165039
      ],
      [
        "▁celebrate",
        -10.364803314208984
      ],
      [
        "He",
        -10.365289688110352
      ],
      [
        "▁older",
        -10.365591049194336
      ],
      [
        "▁shut",
        -10.36632251739502
      ],
      [
        "▁humble",
        -10.367070198059082
      ],
      [
        "▁bent",
        -10.367545127868652
      ],
      [
        "▁piano",
        -10.367669105529785
      ],
      [
        "▁numbers",
        -10.368657112121582
      ],
      [
        "▁cooking",
        -10.368762016296387
      ],
      [
        "▁persistent",
        -10.369767189025879
      ],
      [
        "▁uncomfortable",
        -10.371869087219238
      ],
      [
        "▁drop",
        -10.372539520263672
      ],
      [
        "▁mole",
        -10.37352466583252
      ],
      [
        "▁jet",
        -10.373675346374512
      ],
      [
        "▁harmless",
        -10.376543998718262
      ],
      [
        "If",
        -10.376606941223145
      ],
      [
        "▁note",
        -10.377211570739746
      ],
      [
        "▁lead",
        -10.379267692565918
      ],
      [
        "▁parade",
        -10.380172729492188
      ],
      [
        "▁slid",
        -10.381471633911133
      ],
      [
        "▁charming",
        -10.382010459899902
      ],
      [
        "al",
        -10.382534980773926
      ],
      [
        "▁beauty",
        -10.383513450622559
      ],
      [
        "▁collar",
        -10.38427448272705
      ],
      [
        "▁flute",
        -10.384578704833984
      ],
      [
        "▁Give",
        -10.385805130004883
      ],
      [
        "▁towers",
        -10.386380195617676
      ],
      [
        "▁sell",
        -10.387247085571289
      ],
      [
        "▁uncle",
        -10.388239860534668
      ],
      [
        "▁track",
        -10.388286590576172
      ],
      [
        "▁raven",
        -10.389616012573242
      ],
      [
        "▁helmet",
        -10.3904447555542
      ],
      [
        "▁order",
        -10.391263961791992
      ],
      [
        "▁ordinary",
        -10.393141746520996
      ],
      [
        "▁octopus",
        -10.393448829650879
      ],
      [
        "▁needle",
        -10.394064903259277
      ],
      [
        "▁study",
        -10.394881248474121
      ],
      [
        "▁gifted",
        -10.39509391784668
      ],
      [
        "▁deaf",
        -10.396063804626465
      ],
      [
        "▁tunnel",
        -10.398811340332031
      ],
      [
        "▁pretending",
        -10.400602340698242
      ],
      [
        "▁pony",
        -10.401004791259766
      ],
      [
        "▁snuggled",
        -10.401969909667969
      ],
      [
        "cream",
        -10.402085304260254
      ],
      [
        "▁chasing",
        -10.402554512023926
      ],
      [
        "▁jelly",
        -10.402708053588867
      ],
      [
        "▁cereal",
        -10.402709007263184
      ],
      [
        "▁rules",
        -10.403538703918457
      ],
      [
        "▁gloomy",
        -10.403644561767578
      ],
      [
        "▁Henry",
        -10.403950691223145
      ],
      [
        "They",
        -10.404032707214355
      ],
      [
        "▁flour",
        -10.404882431030273
      ],
      [
        "There",
        -10.405683517456055
      ],
      [
        "▁stops",
        -10.406317710876465
      ],
      [
        "▁fear",
        -10.407384872436523
      ],
      [
        "▁sandwiches",
        -10.40915584564209
      ],
      [
        "▁miserable",
        -10.410335540771484
      ],
      [
        "▁fan",
        -10.410503387451172
      ],
      [
        "▁screen",
        -10.411430358886719
      ],
      [
        "▁design",
        -10.411866188049316
      ],
      [
        "Yay",
        -10.413164138793945
      ],
      [
        "▁pack",
        -10.413922309875488
      ],
      [
        "▁bicycle",
        -10.413935661315918
      ],
      [
        "▁crystal",
        -10.414175987243652
      ],
      [
        "▁station",
        -10.414719581604004
      ],
      [
        "▁zebra",
        -10.414807319641113
      ],
      [
        "▁squash",
        -10.41581916809082
      ],
      [
        "▁spring",
        -10.41586971282959
      ],
      [
        "▁helpless",
        -10.416444778442383
      ],
      [
        "▁twirled",
        -10.416717529296875
      ],
      [
        "▁crack",
        -10.41672134399414
      ],
      [
        "▁bounced",
        -10.416836738586426
      ],
      [
        "▁shaking",
        -10.41707706451416
      ],
      [
        "▁package",
        -10.417662620544434
      ],
      [
        "▁lively",
        -10.41770076751709
      ],
      [
        "▁lollipop",
        -10.417974472045898
      ],
      [
        "▁return",
        -10.418326377868652
      ],
      [
        "œThat",
        -10.41889762878418
      ],
      [
        "▁hurry",
        -10.418966293334961
      ],
      [
        "▁intelligent",
        -10.418966293334961
      ],
      [
        "▁stir",
        -10.419273376464844
      ],
      [
        "▁ten",
        -10.421415328979492
      ],
      [
        "▁skip",
        -10.42148208618164
      ],
      [
        "▁nurse",
        -10.42162036895752
      ],
      [
        "▁suit",
        -10.422109603881836
      ],
      [
        "▁helps",
        -10.422164916992188
      ],
      [
        "▁hung",
        -10.422348022460938
      ],
      [
        "▁alert",
        -10.42402172088623
      ],
      [
        "en",
        -10.426729202270508
      ],
      [
        "▁anywhere",
        -10.428157806396484
      ],
      [
        "▁soldier",
        -10.429301261901855
      ],
      [
        "▁dug",
        -10.429742813110352
      ],
      [
        "▁wishes",
        -10.43067741394043
      ],
      [
        "▁chance",
        -10.431015014648438
      ],
      [
        "▁hunter",
        -10.43124771118164
      ],
      [
        "▁Tweetie",
        -10.431516647338867
      ],
      [
        "▁bandage",
        -10.431879043579102
      ],
      [
        "▁thief",
        -10.432452201843262
      ],
      [
        "▁ignorant",
        -10.432645797729492
      ],
      [
        "▁Charlie",
        -10.432807922363281
      ],
      [
        "▁Fin",
        -10.43300724029541
      ],
      [
        "▁jumps",
        -10.434577941894531
      ],
      [
        "▁gem",
        -10.436381340026855
      ],
      [
        "▁Grace",
        -10.43668270111084
      ],
      [
        "Give",
        -10.437252044677734
      ],
      [
        "g",
        -10.437493324279785
      ],
      [
        "▁Before",
        -10.438379287719727
      ],
      [
        "▁thread",
        -10.4385404586792
      ],
      [
        "▁cap",
        -10.43935489654541
      ],
      [
        "▁post",
        -10.439763069152832
      ],
      [
        "▁practiced",
        -10.439888954162598
      ],
      [
        "▁chubby",
        -10.441436767578125
      ],
      [
        "▁arrow",
        -10.441725730895996
      ],
      [
        "▁Annie",
        -10.441794395446777
      ],
      [
        "▁less",
        -10.442055702209473
      ],
      [
        "▁drawer",
        -10.442963600158691
      ],
      [
        "▁leash",
        -10.443211555480957
      ],
      [
        "or",
        -10.444011688232422
      ],
      [
        "▁square",
        -10.444490432739258
      ],
      [
        "▁cube",
        -10.444589614868164
      ],
      [
        "▁Brownie",
        -10.445049285888672
      ],
      [
        "▁comb",
        -10.445090293884277
      ],
      [
        "▁blow",
        -10.445136070251465
      ],
      [
        "▁Lilly",
        -10.445525169372559
      ],
      [
        "▁shine",
        -10.4461088180542
      ],
      [
        "▁Look",
        -10.446798324584961
      ],
      [
        "▁slides",
        -10.447004318237305
      ],
      [
        "▁anyway",
        -10.447122573852539
      ],
      [
        "▁courage",
        -10.447576522827148
      ],
      [
        "▁creatures",
        -10.447755813598633
      ],
      [
        "▁message",
        -10.447773933410645
      ],
      [
        "▁radio",
        -10.449041366577148
      ],
      [
        "▁led",
        -10.449798583984375
      ],
      [
        "▁further",
        -10.450194358825684
      ],
      [
        "▁stirred",
        -10.451160430908203
      ],
      [
        "▁seem",
        -10.451264381408691
      ],
      [
        "▁pipe",
        -10.453272819519043
      ],
      [
        "▁stickers",
        -10.454188346862793
      ],
      [
        "▁names",
        -10.455183982849121
      ],
      [
        "▁cricket",
        -10.45588493347168
      ],
      [
        "▁carpet",
        -10.456704139709473
      ],
      [
        "▁pants",
        -10.45706558227539
      ],
      [
        "le",
        -10.458455085754395
      ],
      [
        "▁attractive",
        -10.45866870880127
      ],
      [
        "▁trash",
        -10.460145950317383
      ],
      [
        "▁seal",
        -10.462890625
      ],
      [
        "▁dessert",
        -10.463106155395508
      ],
      [
        "▁pressed",
        -10.463751792907715
      ],
      [
        "▁Are",
        -10.464190483093262
      ],
      [
        "▁Will",
        -10.464628219604492
      ],
      [
        "▁mask",
        -10.46572208404541
      ],
      [
        "▁compassionate",
        -10.46657657623291
      ],
      [
        "▁respectful",
        -10.466838836669922
      ],
      [
        "▁pigeon",
        -10.467387199401855
      ],
      [
        "▁competitive",
        -10.467728614807129
      ],
      [
        "▁nobody",
        -10.467728614807129
      ],
      [
        "▁impatient",
        -10.468059539794922
      ],
      [
        "▁brighter",
        -10.469513893127441
      ],
      [
        "▁tool",
        -10.469829559326172
      ],
      [
        "▁restless",
        -10.470447540283203
      ],
      [
        "▁stretch",
        -10.471022605895996
      ],
      [
        "▁shoe",
        -10.47105884552002
      ],
      [
        "▁decorate",
        -10.472530364990234
      ],
      [
        "▁hook",
        -10.472923278808594
      ],
      [
        "▁pilot",
        -10.473285675048828
      ],
      [
        "▁rub",
        -10.473766326904297
      ],
      [
        "▁afternoon",
        -10.474202156066895
      ],
      [
        "▁fireman",
        -10.475255012512207
      ],
      [
        "▁may",
        -10.47535514831543
      ],
      [
        "▁belt",
        -10.476268768310547
      ],
      [
        "▁Jerry",
        -10.477373123168945
      ],
      [
        "▁crawl",
        -10.477791786193848
      ],
      [
        "▁sweetheart",
        -10.47854232788086
      ],
      [
        "▁adorable",
        -10.47870922088623
      ],
      [
        "▁ghost",
        -10.478951454162598
      ],
      [
        "▁cop",
        -10.479530334472656
      ],
      [
        "▁steps",
        -10.479695320129395
      ],
      [
        "▁broccoli",
        -10.480216026306152
      ],
      [
        "▁bark",
        -10.48050594329834
      ],
      [
        "▁itself",
        -10.481222152709961
      ],
      [
        "▁troubled",
        -10.481243133544922
      ],
      [
        "▁stretched",
        -10.481446266174316
      ],
      [
        "▁travel",
        -10.481833457946777
      ],
      [
        "▁trumpet",
        -10.482564926147461
      ],
      [
        "▁melon",
        -10.482732772827148
      ],
      [
        "▁restaurant",
        -10.482732772827148
      ],
      [
        "▁relax",
        -10.483931541442871
      ],
      [
        "▁leopard",
        -10.484749794006348
      ],
      [
        "▁somewhere",
        -10.485174179077148
      ],
      [
        "▁mug",
        -10.48525619506836
      ],
      [
        "▁candle",
        -10.486394882202148
      ],
      [
        "▁cheer",
        -10.486577033996582
      ],
      [
        "▁sandbox",
        -10.486616134643555
      ],
      [
        "▁pasta",
        -10.487346649169922
      ],
      [
        "▁disgusting",
        -10.487449645996094
      ],
      [
        "▁cards",
        -10.48843765258789
      ],
      [
        "▁club",
        -10.488966941833496
      ],
      [
        "▁fork",
        -10.489270210266113
      ],
      [
        "▁fearful",
        -10.489495277404785
      ],
      [
        "▁E",
        -10.489547729492188
      ],
      [
        "▁question",
        -10.489574432373047
      ],
      [
        "▁harsh",
        -10.490320205688477
      ],
      [
        "▁giggle",
        -10.490645408630371
      ],
      [
        "▁jeep",
        -10.49066162109375
      ],
      [
        "▁Maria",
        -10.491223335266113
      ],
      [
        "▁filthy",
        -10.491507530212402
      ],
      [
        "▁envious",
        -10.492183685302734
      ],
      [
        "▁pepper",
        -10.492185592651367
      ],
      [
        "▁guess",
        -10.492512702941895
      ],
      [
        "▁raft",
        -10.49337100982666
      ],
      [
        "▁hippo",
        -10.494729995727539
      ],
      [
        "▁Lee",
        -10.494732856750488
      ],
      [
        "▁admire",
        -10.49523639678955
      ],
      [
        "▁distant",
        -10.495920181274414
      ],
      [
        "▁sweater",
        -10.496280670166016
      ],
      [
        "▁reward",
        -10.496801376342773
      ],
      [
        "▁record",
        -10.497537612915039
      ],
      [
        "▁dish",
        -10.497621536254883
      ],
      [
        "▁Everything",
        -10.497962951660156
      ],
      [
        "▁Danny",
        -10.498197555541992
      ],
      [
        "▁tray",
        -10.498827934265137
      ],
      [
        "▁Here",
        -10.499044418334961
      ],
      [
        "▁helicopter",
        -10.499842643737793
      ],
      [
        "▁case",
        -10.500185012817383
      ],
      [
        "▁shade",
        -10.50035572052002
      ],
      [
        "▁attic",
        -10.500360488891602
      ],
      [
        "▁Where",
        -10.500840187072754
      ],
      [
        "▁cocoa",
        -10.502580642700195
      ],
      [
        "▁cooked",
        -10.50289249420166
      ],
      [
        "▁jug",
        -10.50291919708252
      ],
      [
        "▁letters",
        -10.504911422729492
      ],
      [
        "▁shouts",
        -10.508387565612793
      ],
      [
        "▁alligator",
        -10.5084228515625
      ],
      [
        "▁rod",
        -10.509744644165039
      ],
      [
        "▁gorilla",
        -10.510665893554688
      ],
      [
        "▁Would",
        -10.5127534866333
      ],
      [
        "▁stuff",
        -10.512951850891113
      ],
      [
        "▁nowhere",
        -10.513127326965332
      ],
      [
        "▁Mimi",
        -10.513884544372559
      ],
      [
        "▁starts",
        -10.514086723327637
      ],
      [
        "▁otter",
        -10.514299392700195
      ],
      [
        "▁Baby",
        -10.514820098876953
      ],
      [
        "▁Be",
        -10.514969825744629
      ],
      [
        "▁judge",
        -10.515340805053711
      ],
      [
        "▁quite",
        -10.516803741455078
      ],
      [
        "▁pour",
        -10.518710136413574
      ],
      [
        "▁scooter",
        -10.519193649291992
      ],
      [
        "▁soar",
        -10.519813537597656
      ],
      [
        "▁rescue",
        -10.5203857421875
      ],
      [
        "▁bathtub",
        -10.521432876586914
      ],
      [
        "▁enthusiastic",
        -10.521843910217285
      ],
      [
        "▁Bunny",
        -10.522311210632324
      ],
      [
        "▁happier",
        -10.522655487060547
      ],
      [
        "ie",
        -10.523722648620605
      ],
      [
        "▁windows",
        -10.523761749267578
      ],
      [
        "▁ostrich",
        -10.524893760681152
      ],
      [
        "▁given",
        -10.525993347167969
      ],
      [
        "▁lid",
        -10.526684761047363
      ],
      [
        "▁ants",
        -10.52785587310791
      ],
      [
        "▁listening",
        -10.528157234191895
      ],
      [
        "▁violin",
        -10.528441429138184
      ],
      [
        "▁barking",
        -10.528715133666992
      ],
      [
        "▁Millie",
        -10.528838157653809
      ],
      [
        "▁nuts",
        -10.529895782470703
      ],
      [
        "▁sheet",
        -10.53137493133545
      ],
      [
        "▁mama",
        -10.532140731811523
      ],
      [
        "year",
        -10.53337287902832
      ],
      [
        "▁split",
        -10.533376693725586
      ],
      [
        "▁fold",
        -10.533456802368164
      ],
      [
        "▁stared",
        -10.53465747833252
      ],
      [
        "▁paid",
        -10.534807205200195
      ],
      [
        "▁sort",
        -10.536296844482422
      ],
      [
        "▁tripped",
        -10.536757469177246
      ],
      [
        "Bye",
        -10.537120819091797
      ],
      [
        "▁shadow",
        -10.53832721710205
      ],
      [
        "▁quick",
        -10.539047241210938
      ],
      [
        "u",
        -10.539340019226074
      ],
      [
        "▁perform",
        -10.54000473022461
      ],
      [
        "▁grabs",
        -10.540299415588379
      ],
      [
        "▁sent",
        -10.540831565856934
      ],
      [
        "▁purse",
        -10.54189395904541
      ],
      [
        "▁cows",
        -10.542001724243164
      ],
      [
        "▁heal",
        -10.543476104736328
      ],
      [
        "▁size",
        -10.546456336975098
      ],
      [
        "▁stack",
        -10.546592712402344
      ],
      [
        "▁starting",
        -10.54763412475586
      ],
      [
        "▁spirit",
        -10.54797077178955
      ],
      [
        "▁Ted",
        -10.54876708984375
      ],
      [
        "▁modest",
        -10.549406051635742
      ],
      [
        "▁wander",
        -10.549424171447754
      ],
      [
        "▁monkeys",
        -10.550548553466797
      ],
      [
        "▁Harry",
        -10.551383972167969
      ],
      [
        "▁triangle",
        -10.552558898925781
      ],
      [
        "▁roared",
        -10.553783416748047
      ],
      [
        "▁energy",
        -10.553905487060547
      ],
      [
        "▁mule",
        -10.555169105529785
      ],
      [
        "▁lightning",
        -10.556097984313965
      ],
      [
        "▁rice",
        -10.556795120239258
      ],
      [
        "▁jellyfish",
        -10.557703018188477
      ],
      [
        "▁museum",
        -10.558062553405762
      ],
      [
        "▁paws",
        -10.559572219848633
      ],
      [
        "▁salt",
        -10.559739112854004
      ],
      [
        "▁neat",
        -10.559778213500977
      ],
      [
        "▁Sandy",
        -10.559879302978516
      ],
      [
        "▁steal",
        -10.559978485107422
      ],
      [
        "▁pushing",
        -10.560038566589355
      ],
      [
        "▁panda",
        -10.560769081115723
      ],
      [
        "▁wheat",
        -10.56151008605957
      ],
      [
        "▁frowned",
        -10.561968803405762
      ],
      [
        "▁five",
        -10.562259674072266
      ],
      [
        "▁swinging",
        -10.562629699707031
      ],
      [
        "▁yell",
        -10.563740730285645
      ],
      [
        "▁summer",
        -10.564233779907227
      ],
      [
        "▁wallet",
        -10.56606674194336
      ],
      [
        "▁glow",
        -10.566129684448242
      ],
      [
        "▁forgave",
        -10.566611289978027
      ],
      [
        "▁shield",
        -10.566611289978027
      ],
      [
        "▁bananas",
        -10.566930770874023
      ],
      [
        "▁vine",
        -10.566996574401855
      ],
      [
        "▁dive",
        -10.567173957824707
      ],
      [
        "▁behave",
        -10.567350387573242
      ],
      [
        "▁tire",
        -10.567371368408203
      ],
      [
        "▁boots",
        -10.568241119384766
      ],
      [
        "▁reindeer",
        -10.568256378173828
      ],
      [
        "▁knot",
        -10.568470001220703
      ],
      [
        "▁speed",
        -10.568592071533203
      ],
      [
        "▁organize",
        -10.56927490234375
      ],
      [
        "▁object",
        -10.569392204284668
      ],
      [
        "▁medal",
        -10.569725036621094
      ],
      [
        "▁kangaroo",
        -10.570270538330078
      ],
      [
        "▁math",
        -10.570322036743164
      ],
      [
        "▁Whiskers",
        -10.572525024414062
      ],
      [
        "▁pole",
        -10.57302474975586
      ],
      [
        "▁dust",
        -10.573217391967773
      ],
      [
        "▁evening",
        -10.573429107666016
      ],
      [
        "f",
        -10.574479103088379
      ],
      [
        "▁taxi",
        -10.57504940032959
      ],
      [
        "▁either",
        -10.576892852783203
      ],
      [
        "▁bubble",
        -10.577173233032227
      ],
      [
        "Anna",
        -10.57769775390625
      ],
      [
        "▁sock",
        -10.5778169631958
      ],
      [
        "▁Papa",
        -10.578371047973633
      ],
      [
        "▁strawberry",
        -10.57929515838623
      ],
      [
        "▁knock",
        -10.580039978027344
      ],
      [
        "▁bin",
        -10.582125663757324
      ],
      [
        "▁tomato",
        -10.583149909973145
      ],
      [
        "▁porch",
        -10.583373069763184
      ],
      [
        "▁yogurt",
        -10.584301948547363
      ],
      [
        "▁shopkeeper",
        -10.584493637084961
      ],
      [
        "▁tooth",
        -10.58478832244873
      ],
      [
        "▁polish",
        -10.586799621582031
      ],
      [
        "▁riding",
        -10.588117599487305
      ],
      [
        "▁sticker",
        -10.588312149047852
      ],
      [
        "œYou",
        -10.589136123657227
      ],
      [
        "▁bikes",
        -10.589320182800293
      ],
      [
        "▁send",
        -10.58945369720459
      ],
      [
        "TMm",
        -10.590594291687012
      ],
      [
        "▁chain",
        -10.591017723083496
      ],
      [
        "▁eraser",
        -10.59140396118164
      ],
      [
        "▁alive",
        -10.59289264678955
      ],
      [
        "▁cactus",
        -10.594017028808594
      ],
      [
        "▁ended",
        -10.594289779663086
      ],
      [
        "▁pushes",
        -10.595062255859375
      ],
      [
        "▁speak",
        -10.596905708312988
      ],
      [
        "▁wire",
        -10.598030090332031
      ],
      [
        "▁loop",
        -10.598981857299805
      ],
      [
        "▁ink",
        -10.59934139251709
      ],
      [
        "▁Tweet",
        -10.599983215332031
      ],
      [
        "ar",
        -10.6001558303833
      ],
      [
        "▁pulls",
        -10.600417137145996
      ],
      [
        "▁volcano",
        -10.60250186920166
      ],
      [
        "▁jokes",
        -10.603216171264648
      ],
      [
        "▁van",
        -10.603251457214355
      ],
      [
        "▁silver",
        -10.605535507202148
      ],
      [
        "▁peace",
        -10.60609245300293
      ],
      [
        "▁zoomed",
        -10.606369018554688
      ],
      [
        "▁rag",
        -10.606490135192871
      ],
      [
        "▁steak",
        -10.606865882873535
      ],
      [
        "▁sailor",
        -10.607063293457031
      ],
      [
        "▁airport",
        -10.607826232910156
      ],
      [
        "▁kitty",
        -10.608198165893555
      ],
      [
        "▁microphone",
        -10.6085786819458
      ],
      [
        "▁drawings",
        -10.608774185180664
      ],
      [
        "▁softly",
        -10.608946800231934
      ],
      [
        "▁cord",
        -10.610869407653809
      ],
      [
        "▁grapes",
        -10.610934257507324
      ],
      [
        "▁falling",
        -10.611154556274414
      ],
      [
        "▁haircut",
        -10.611631393432617
      ],
      [
        "▁coffee",
        -10.611823081970215
      ],
      [
        "▁penguin",
        -10.611988067626953
      ],
      [
        "▁rubber",
        -10.612019538879395
      ],
      [
        "▁notebook",
        -10.612204551696777
      ],
      [
        "▁Buddy",
        -10.612284660339355
      ],
      [
        "▁shakes",
        -10.61328125
      ],
      [
        "▁rolling",
        -10.613507270812988
      ],
      [
        "▁aeroplane",
        -10.613722801208496
      ],
      [
        "▁support",
        -10.614014625549316
      ],
      [
        "▁seed",
        -10.614078521728516
      ],
      [
        "▁visited",
        -10.614079475402832
      ],
      [
        "▁task",
        -10.615266799926758
      ],
      [
        "▁clapping",
        -10.615281105041504
      ],
      [
        "▁hadn",
        -10.616296768188477
      ],
      [
        "▁chalk",
        -10.61795711517334
      ],
      [
        "▁mild",
        -10.618534088134766
      ],
      [
        "▁comet",
        -10.618964195251465
      ],
      [
        "un",
        -10.619318008422852
      ],
      [
        "▁goal",
        -10.619955062866211
      ],
      [
        "▁trick",
        -10.620135307312012
      ],
      [
        "▁barrel",
        -10.62045955657959
      ],
      [
        "▁putting",
        -10.620479583740234
      ],
      [
        "▁tap",
        -10.620702743530273
      ],
      [
        "▁resist",
        -10.620816230773926
      ],
      [
        "▁tricks",
        -10.621390342712402
      ],
      [
        "▁hive",
        -10.622206687927246
      ],
      [
        "▁magnet",
        -10.622440338134766
      ],
      [
        "▁hoping",
        -10.622810363769531
      ],
      [
        "▁colours",
        -10.622950553894043
      ],
      [
        "▁leaned",
        -10.623455047607422
      ],
      [
        "▁tube",
        -10.623947143554688
      ],
      [
        "▁James",
        -10.62438678741455
      ],
      [
        "▁belongs",
        -10.624786376953125
      ],
      [
        "▁beep",
        -10.625507354736328
      ],
      [
        "▁ambulance",
        -10.625678062438965
      ],
      [
        "▁poke",
        -10.626086235046387
      ],
      [
        "▁pair",
        -10.626259803771973
      ],
      [
        "▁shelter",
        -10.626259803771973
      ],
      [
        "▁dishes",
        -10.630577087402344
      ],
      [
        "▁acorn",
        -10.631037712097168
      ],
      [
        "▁holes",
        -10.63139533996582
      ],
      [
        "▁minute",
        -10.632412910461426
      ],
      [
        "▁checked",
        -10.632696151733398
      ],
      [
        "▁laundry",
        -10.634632110595703
      ],
      [
        "▁apologized",
        -10.635307312011719
      ],
      [
        "▁costume",
        -10.63536548614502
      ],
      [
        "▁climbing",
        -10.635380744934082
      ],
      [
        "▁marry",
        -10.635610580444336
      ],
      [
        "▁marched",
        -10.63711166381836
      ],
      [
        "▁page",
        -10.63852596282959
      ],
      [
        "▁spell",
        -10.638543128967285
      ],
      [
        "▁repair",
        -10.639041900634766
      ],
      [
        "▁unhappy",
        -10.639335632324219
      ],
      [
        "▁papers",
        -10.639396667480469
      ],
      [
        "▁soil",
        -10.639578819274902
      ],
      [
        "▁comfort",
        -10.639633178710938
      ],
      [
        "▁Pat",
        -10.640424728393555
      ],
      [
        "▁jewel",
        -10.640496253967285
      ],
      [
        "▁smells",
        -10.64148235321045
      ],
      [
        "▁yacht",
        -10.6454439163208
      ],
      [
        "▁glove",
        -10.64566707611084
      ],
      [
        "est",
        -10.645685195922852
      ],
      [
        "▁trophy",
        -10.646037101745605
      ],
      [
        "▁barks",
        -10.646331787109375
      ],
      [
        "▁imagine",
        -10.646456718444824
      ],
      [
        "▁wool",
        -10.648216247558594
      ],
      [
        "▁backpack",
        -10.648458480834961
      ],
      [
        "▁frame",
        -10.648611068725586
      ],
      [
        "▁palace",
        -10.648611068725586
      ],
      [
        "▁peek",
        -10.648730278015137
      ],
      [
        "▁factory",
        -10.649803161621094
      ],
      [
        "▁danger",
        -10.649853706359863
      ],
      [
        "▁diary",
        -10.65000057220459
      ],
      [
        "▁Tony",
        -10.650012016296387
      ],
      [
        "▁journal",
        -10.650596618652344
      ],
      [
        "▁football",
        -10.650997161865234
      ],
      [
        "▁closely",
        -10.652642250061035
      ],
      [
        "▁raining",
        -10.653495788574219
      ],
      [
        "▁learnt",
        -10.653538703918457
      ],
      [
        "ach",
        -10.654067039489746
      ],
      [
        "▁mill",
        -10.65423583984375
      ],
      [
        "▁quit",
        -10.654694557189941
      ],
      [
        "▁shrimp",
        -10.65577507019043
      ],
      [
        "▁shouldn",
        -10.655940055847168
      ],
      [
        "▁motorcycle",
        -10.656373977661133
      ],
      [
        "ri",
        -10.657468795776367
      ],
      [
        "▁folder",
        -10.657546997070312
      ],
      [
        "▁church",
        -10.657573699951172
      ],
      [
        "▁twig",
        -10.65768814086914
      ],
      [
        "▁Maggie",
        -10.658218383789062
      ],
      [
        "▁complete",
        -10.658905029296875
      ],
      [
        "▁winter",
        -10.65904712677002
      ],
      [
        "▁onion",
        -10.659168243408203
      ],
      [
        "▁stuffed",
        -10.659232139587402
      ],
      [
        "▁Smith",
        -10.660579681396484
      ],
      [
        "▁mop",
        -10.660587310791016
      ],
      [
        "▁D",
        -10.661361694335938
      ],
      [
        "▁counter",
        -10.661420822143555
      ],
      [
        "▁bloom",
        -10.66270923614502
      ],
      [
        "▁perfectly",
        -10.663021087646484
      ],
      [
        "▁flame",
        -10.663752555847168
      ],
      [
        "▁twist",
        -10.665160179138184
      ],
      [
        "▁mixer",
        -10.667860984802246
      ],
      [
        "▁meat",
        -10.668560028076172
      ],
      [
        "▁flies",
        -10.66904354095459
      ],
      [
        "▁lions",
        -10.669307708740234
      ],
      [
        "▁skirt",
        -10.670257568359375
      ],
      [
        "▁drops",
        -10.67034912109375
      ],
      [
        "▁furniture",
        -10.670866012573242
      ],
      [
        "▁available",
        -10.672082901000977
      ],
      [
        "▁celery",
        -10.672286033630371
      ],
      [
        "▁switch",
        -10.672876358032227
      ],
      [
        "▁pebble",
        -10.673125267028809
      ],
      [
        "▁bulb",
        -10.673707962036133
      ],
      [
        "▁wife",
        -10.673707962036133
      ],
      [
        "▁laser",
        -10.674115180969238
      ],
      [
        "▁unlock",
        -10.675057411193848
      ],
      [
        "▁cardboard",
        -10.675344467163086
      ],
      [
        "▁eagerly",
        -10.679004669189453
      ],
      [
        "▁cooler",
        -10.679939270019531
      ],
      [
        "▁planet",
        -10.68018913269043
      ],
      [
        "▁pit",
        -10.680320739746094
      ],
      [
        "▁player",
        -10.68108081817627
      ],
      [
        "▁second",
        -10.682170867919922
      ],
      [
        "▁basketball",
        -10.682499885559082
      ],
      [
        "▁lie",
        -10.682597160339355
      ],
      [
        "▁swung",
        -10.683309555053711
      ],
      [
        "i",
        -10.683675765991211
      ],
      [
        "▁knob",
        -10.684747695922852
      ],
      [
        "▁elevator",
        -10.685158729553223
      ],
      [
        "▁imagination",
        -10.686393737792969
      ],
      [
        "▁battery",
        -10.686687469482422
      ],
      [
        "▁mushroom",
        -10.691092491149902
      ],
      [
        "▁baking",
        -10.691762924194336
      ],
      [
        "▁headed",
        -10.693655014038086
      ],
      [
        "ness",
        -10.69456958770752
      ],
      [
        "▁thanks",
        -10.69575309753418
      ],
      [
        "▁golf",
        -10.695862770080566
      ],
      [
        "on",
        -10.696440696716309
      ],
      [
        "▁between",
        -10.696950912475586
      ],
      [
        "▁trains",
        -10.697606086730957
      ],
      [
        "▁gather",
        -10.69792652130127
      ],
      [
        "▁oil",
        -10.698445320129395
      ],
      [
        "▁Clara",
        -10.699033737182617
      ],
      [
        "in",
        -10.699931144714355
      ],
      [
        "▁sunset",
        -10.70070743560791
      ],
      [
        "▁fields",
        -10.701809883117676
      ],
      [
        "▁yoga",
        -10.703422546386719
      ],
      [
        "▁Instead",
        -10.703841209411621
      ],
      [
        "▁vendor",
        -10.706568717956543
      ],
      [
        "▁shouting",
        -10.706829071044922
      ],
      [
        "▁Dan",
        -10.707268714904785
      ],
      [
        "▁anchor",
        -10.707620620727539
      ],
      [
        "▁fisherman",
        -10.707620620727539
      ],
      [
        "▁maze",
        -10.707621574401855
      ],
      [
        "▁Bun",
        -10.707650184631348
      ],
      [
        "▁skull",
        -10.709303855895996
      ],
      [
        "▁pin",
        -10.71020793914795
      ],
      [
        "▁cushion",
        -10.710238456726074
      ],
      [
        "▁stamp",
        -10.712780952453613
      ],
      [
        "▁fishing",
        -10.713497161865234
      ],
      [
        "▁coal",
        -10.714177131652832
      ],
      [
        "▁human",
        -10.714284896850586
      ],
      [
        "▁video",
        -10.714496612548828
      ],
      [
        "▁pirates",
        -10.71473503112793
      ],
      [
        "osie",
        -10.714759826660156
      ],
      [
        "▁peach",
        -10.71497631072998
      ],
      [
        "▁napkin",
        -10.717708587646484
      ],
      [
        "▁painter",
        -10.718076705932617
      ],
      [
        "▁fireplace",
        -10.718843460083008
      ],
      [
        "▁wipe",
        -10.720097541809082
      ],
      [
        "▁kingdom",
        -10.720959663391113
      ],
      [
        "▁film",
        -10.721776008605957
      ],
      [
        "▁motor",
        -10.72223949432373
      ],
      [
        "▁point",
        -10.72265911102295
      ],
      [
        "▁blowing",
        -10.723008155822754
      ],
      [
        "▁celebrated",
        -10.723128318786621
      ],
      [
        "▁mechanic",
        -10.72437572479248
      ],
      [
        "▁created",
        -10.725512504577637
      ],
      [
        "▁weather",
        -10.726516723632812
      ],
      [
        "▁breaks",
        -10.728621482849121
      ],
      [
        "▁soccer",
        -10.729092597961426
      ],
      [
        "▁dear",
        -10.72977066040039
      ],
      [
        "▁dancer",
        -10.72996711730957
      ],
      [
        "▁waving",
        -10.730167388916016
      ],
      [
        "▁Tina",
        -10.731050491333008
      ],
      [
        "Your",
        -10.731470108032227
      ],
      [
        "▁slept",
        -10.731889724731445
      ],
      [
        "▁hotel",
        -10.732044219970703
      ],
      [
        "▁explain",
        -10.735574722290039
      ],
      [
        "▁cats",
        -10.7362060546875
      ],
      [
        "▁vest",
        -10.73620891571045
      ],
      [
        "▁attention",
        -10.736858367919922
      ],
      [
        "▁meeting",
        -10.737854957580566
      ],
      [
        "▁potato",
        -10.73790454864502
      ],
      [
        "▁breeze",
        -10.738375663757324
      ],
      [
        "▁Or",
        -10.73891544342041
      ],
      [
        "▁cups",
        -10.739072799682617
      ],
      [
        "▁curtain",
        -10.739336013793945
      ],
      [
        "▁photo",
        -10.73977279663086
      ],
      [
        "▁seeing",
        -10.739973068237305
      ],
      [
        "▁powder",
        -10.7401123046875
      ],
      [
        "▁horses",
        -10.740767478942871
      ],
      [
        "▁strength",
        -10.740982055664062
      ],
      [
        "▁vet",
        -10.741877555847168
      ],
      [
        "▁hedge",
        -10.74250602722168
      ],
      [
        "▁cable",
        -10.742945671081543
      ],
      [
        "▁hut",
        -10.744032859802246
      ],
      [
        "▁forgotten",
        -10.744467735290527
      ],
      [
        "▁Miss",
        -10.744885444641113
      ],
      [
        "▁treasures",
        -10.745513916015625
      ],
      [
        "▁pistol",
        -10.74599552154541
      ],
      [
        "▁points",
        -10.746026039123535
      ],
      [
        "▁deliver",
        -10.746033668518066
      ],
      [
        "▁glowing",
        -10.746306419372559
      ],
      [
        "▁cauliflower",
        -10.746870040893555
      ],
      [
        "▁lives",
        -10.747237205505371
      ],
      [
        "▁throws",
        -10.74734115600586
      ],
      [
        "w",
        -10.74915599822998
      ],
      [
        "▁flea",
        -10.750772476196289
      ],
      [
        "▁rhinoceros",
        -10.751035690307617
      ],
      [
        "▁theater",
        -10.751262664794922
      ],
      [
        "▁lend",
        -10.751434326171875
      ],
      [
        "▁C",
        -10.751542091369629
      ],
      [
        "▁baseball",
        -10.75169563293457
      ],
      [
        "▁iron",
        -10.75301456451416
      ],
      [
        "▁God",
        -10.753238677978516
      ],
      [
        "▁sunglasses",
        -10.753674507141113
      ],
      [
        "▁popped",
        -10.754338264465332
      ],
      [
        "▁skeleton",
        -10.754997253417969
      ],
      [
        "▁petals",
        -10.75503921508789
      ],
      [
        "▁giraffe",
        -10.755207061767578
      ],
      [
        "▁sir",
        -10.755584716796875
      ],
      [
        "▁memories",
        -10.756762504577637
      ],
      [
        "▁argue",
        -10.757694244384766
      ],
      [
        "▁staff",
        -10.757867813110352
      ],
      [
        "▁axe",
        -10.75964069366455
      ],
      [
        "▁gas",
        -10.759805679321289
      ],
      [
        "▁agree",
        -10.761041641235352
      ],
      [
        "Max",
        -10.761046409606934
      ],
      [
        "▁lime",
        -10.76144790649414
      ],
      [
        "▁frogs",
        -10.762009620666504
      ],
      [
        "▁peanut",
        -10.76211929321289
      ],
      [
        "▁tuna",
        -10.762301445007324
      ],
      [
        "▁parent",
        -10.763238906860352
      ],
      [
        "▁success",
        -10.764512062072754
      ],
      [
        "▁temple",
        -10.764970779418945
      ],
      [
        "▁zipper",
        -10.765432357788086
      ],
      [
        "▁greedy",
        -10.766758918762207
      ],
      [
        "▁plastic",
        -10.76786994934082
      ],
      [
        "▁hanging",
        -10.76805305480957
      ],
      [
        "▁newspaper",
        -10.768540382385254
      ],
      [
        "▁microscope",
        -10.769659042358398
      ],
      [
        "Tim",
        -10.770730972290039
      ],
      [
        "▁mistakes",
        -10.771639823913574
      ],
      [
        "▁cabin",
        -10.771899223327637
      ],
      [
        "▁missile",
        -10.772130966186523
      ],
      [
        "▁tutor",
        -10.773021697998047
      ],
      [
        "▁flapped",
        -10.774822235107422
      ],
      [
        "▁musician",
        -10.775284767150879
      ],
      [
        "▁offer",
        -10.775938987731934
      ],
      [
        "▁shower",
        -10.776349067687988
      ],
      [
        "▁bears",
        -10.778192520141602
      ],
      [
        "▁throwing",
        -10.778430938720703
      ],
      [
        "▁hockey",
        -10.779780387878418
      ],
      [
        "▁ceiling",
        -10.7804594039917
      ],
      [
        "▁writing",
        -10.780685424804688
      ],
      [
        "▁radish",
        -10.780874252319336
      ],
      [
        "▁shoulder",
        -10.781051635742188
      ],
      [
        "▁fog",
        -10.781363487243652
      ],
      [
        "and",
        -10.781693458557129
      ],
      [
        "▁crib",
        -10.78204345703125
      ],
      [
        "▁tear",
        -10.782670021057129
      ],
      [
        "▁feelings",
        -10.782756805419922
      ],
      [
        "▁sniffed",
        -10.783456802368164
      ],
      [
        "▁shovel",
        -10.784316062927246
      ],
      [
        "▁chickens",
        -10.785967826843262
      ],
      [
        "▁disappear",
        -10.786559104919434
      ],
      [
        "▁slippery",
        -10.786585807800293
      ],
      [
        "▁rise",
        -10.787041664123535
      ],
      [
        "▁M",
        -10.787835121154785
      ],
      [
        "▁trail",
        -10.788071632385254
      ],
      [
        "▁pine",
        -10.790291786193848
      ],
      [
        "▁welcomed",
        -10.791031837463379
      ],
      [
        "▁lotion",
        -10.7912015914917
      ],
      [
        "▁spear",
        -10.792291641235352
      ],
      [
        "▁mattress",
        -10.794124603271484
      ],
      [
        "▁accepted",
        -10.79526424407959
      ],
      [
        "▁eaten",
        -10.795672416687012
      ],
      [
        "▁freezer",
        -10.795998573303223
      ],
      [
        "▁igloo",
        -10.796191215515137
      ],
      [
        "▁golden",
        -10.797627449035645
      ],
      [
        "▁sneeze",
        -10.797857284545898
      ],
      [
        "▁bouncing",
        -10.799182891845703
      ],
      [
        "▁accept",
        -10.79919147491455
      ],
      [
        "▁quietly",
        -10.799788475036621
      ],
      [
        "▁makeup",
        -10.800668716430664
      ],
      [
        "▁sticky",
        -10.801190376281738
      ],
      [
        "▁squeeze",
        -10.802472114562988
      ],
      [
        "▁fought",
        -10.803571701049805
      ],
      [
        "▁discover",
        -10.803637504577637
      ],
      [
        "▁avocado",
        -10.804158210754395
      ],
      [
        "▁invite",
        -10.804788589477539
      ],
      [
        "▁faucet",
        -10.805193901062012
      ],
      [
        "▁True",
        -10.805315971374512
      ],
      [
        "▁quarrel",
        -10.805395126342773
      ],
      [
        "▁marble",
        -10.80649471282959
      ],
      [
        "▁vroom",
        -10.807433128356934
      ],
      [
        "▁separate",
        -10.807806015014648
      ],
      [
        "▁heads",
        -10.810293197631836
      ],
      [
        "▁mystery",
        -10.81100845336914
      ],
      [
        "▁file",
        -10.81147575378418
      ],
      [
        "▁investigate",
        -10.812875747680664
      ],
      [
        "▁cared",
        -10.813508987426758
      ],
      [
        "▁swamp",
        -10.813838958740234
      ],
      [
        "▁lawyer",
        -10.814980506896973
      ],
      [
        "ver",
        -10.815265655517578
      ],
      [
        "▁worth",
        -10.815683364868164
      ],
      [
        "▁First",
        -10.816510200500488
      ],
      [
        "Timmy",
        -10.81714916229248
      ],
      [
        "▁tug",
        -10.817322731018066
      ],
      [
        "▁oyster",
        -10.818257331848145
      ],
      [
        "▁chess",
        -10.81967544555664
      ],
      [
        "▁creek",
        -10.820145606994629
      ],
      [
        "▁pear",
        -10.820221900939941
      ],
      [
        "▁veil",
        -10.820381164550781
      ],
      [
        "▁nail",
        -10.820389747619629
      ],
      [
        "▁reef",
        -10.822031021118164
      ],
      [
        "▁calls",
        -10.822389602661133
      ],
      [
        "▁razor",
        -10.8241548538208
      ],
      [
        "▁exam",
        -10.824620246887207
      ],
      [
        "▁alarm",
        -10.824630737304688
      ],
      [
        "▁trade",
        -10.825873374938965
      ],
      [
        "▁toilet",
        -10.826067924499512
      ],
      [
        "▁choice",
        -10.827291488647461
      ],
      [
        "▁shrugged",
        -10.827469825744629
      ],
      [
        "▁dishwasher",
        -10.828417778015137
      ],
      [
        "▁splashing",
        -10.82876968383789
      ],
      [
        "▁valley",
        -10.828892707824707
      ],
      [
        "▁weigh",
        -10.829787254333496
      ],
      [
        "▁wags",
        -10.830352783203125
      ],
      [
        "▁pup",
        -10.83223819732666
      ],
      [
        "▁ignored",
        -10.832380294799805
      ],
      [
        "▁luck",
        -10.83303165435791
      ],
      [
        "▁burn",
        -10.833566665649414
      ],
      [
        "▁display",
        -10.834125518798828
      ],
      [
        "▁Milly",
        -10.83532428741455
      ],
      [
        "▁collected",
        -10.83601188659668
      ],
      [
        "▁sailing",
        -10.837296485900879
      ],
      [
        "▁kayak",
        -10.837457656860352
      ],
      [
        "▁bean",
        -10.837634086608887
      ],
      [
        "▁apart",
        -10.837956428527832
      ],
      [
        "▁melt",
        -10.838200569152832
      ],
      [
        "▁chimney",
        -10.839155197143555
      ],
      [
        "▁poem",
        -10.839787483215332
      ],
      [
        "▁armchair",
        -10.839875221252441
      ],
      [
        "▁tub",
        -10.84064769744873
      ],
      [
        "▁kisses",
        -10.841686248779297
      ],
      [
        "▁entered",
        -10.844395637512207
      ],
      [
        "▁scolded",
        -10.845195770263672
      ],
      [
        "▁burned",
        -10.846603393554688
      ],
      [
        "▁mustache",
        -10.847346305847168
      ],
      [
        "▁classroom",
        -10.848084449768066
      ],
      [
        "▁wardrobe",
        -10.848797798156738
      ],
      [
        "▁squirrels",
        -10.84958553314209
      ],
      [
        "▁perfume",
        -10.85000991821289
      ],
      [
        "▁tornado",
        -10.850494384765625
      ],
      [
        "▁sprayed",
        -10.850900650024414
      ],
      [
        "▁candles",
        -10.851280212402344
      ],
      [
        "▁blouse",
        -10.851951599121094
      ],
      [
        "▁happens",
        -10.851974487304688
      ],
      [
        "▁model",
        -10.852437973022461
      ],
      [
        "▁straight",
        -10.852437973022461
      ],
      [
        "▁ticket",
        -10.85244083404541
      ],
      [
        "▁blinked",
        -10.852545738220215
      ],
      [
        "▁hall",
        -10.85336971282959
      ],
      [
        "▁language",
        -10.853665351867676
      ],
      [
        "▁since",
        -10.854011535644531
      ],
      [
        "▁mosquito",
        -10.854347229003906
      ],
      [
        "▁See",
        -10.85661506652832
      ],
      [
        "S",
        -10.8566255569458
      ],
      [
        "▁easily",
        -10.856822967529297
      ],
      [
        "uby",
        -10.856839179992676
      ],
      [
        "▁Freddy",
        -10.857815742492676
      ],
      [
        "▁pattern",
        -10.857843399047852
      ],
      [
        "▁short",
        -10.858991622924805
      ],
      [
        "▁caring",
        -10.85947036743164
      ],
      [
        "▁spark",
        -10.859657287597656
      ],
      [
        "▁gear",
        -10.859813690185547
      ],
      [
        "▁oak",
        -10.860492706298828
      ],
      [
        "▁dressed",
        -10.860564231872559
      ],
      [
        "▁trusted",
        -10.861209869384766
      ],
      [
        "▁magazine",
        -10.861542701721191
      ],
      [
        "▁earth",
        -10.861987113952637
      ],
      [
        "▁puddles",
        -10.863716125488281
      ],
      [
        "▁presents",
        -10.864191055297852
      ],
      [
        "▁lab",
        -10.864237785339355
      ],
      [
        "▁pray",
        -10.864350318908691
      ],
      [
        "▁jewelry",
        -10.864923477172852
      ],
      [
        "▁pill",
        -10.864995002746582
      ],
      [
        "▁hopes",
        -10.865078926086426
      ],
      [
        "▁grill",
        -10.865406036376953
      ],
      [
        "ray",
        -10.866915702819824
      ],
      [
        "▁spade",
        -10.868118286132812
      ],
      [
        "▁rake",
        -10.86819076538086
      ],
      [
        "it",
        -10.868264198303223
      ],
      [
        "▁television",
        -10.868365287780762
      ],
      [
        "▁serve",
        -10.869674682617188
      ],
      [
        "tucked",
        -10.870339393615723
      ],
      [
        "▁cherries",
        -10.871334075927734
      ],
      [
        "▁telephone",
        -10.872572898864746
      ],
      [
        "▁blankets",
        -10.872775077819824
      ],
      [
        "▁stable",
        -10.872821807861328
      ],
      [
        "▁cabinet",
        -10.876301765441895
      ],
      [
        "▁keeping",
        -10.87706184387207
      ],
      [
        "▁crossed",
        -10.877093315124512
      ],
      [
        "▁castles",
        -10.877178192138672
      ],
      [
        "▁coats",
        -10.87726879119873
      ],
      [
        "▁unpack",
        -10.877313613891602
      ],
      [
        "▁lawn",
        -10.878360748291016
      ],
      [
        "▁cell",
        -10.879294395446777
      ],
      [
        "Wait",
        -10.879770278930664
      ],
      [
        "▁sizes",
        -10.880471229553223
      ],
      [
        "▁claws",
        -10.881454467773438
      ],
      [
        "▁follows",
        -10.88322925567627
      ],
      [
        "▁veterinarian",
        -10.883798599243164
      ],
      [
        "▁moves",
        -10.884713172912598
      ],
      [
        "▁subway",
        -10.885555267333984
      ],
      [
        "▁buckle",
        -10.88638687133789
      ],
      [
        "▁planes",
        -10.886576652526855
      ],
      [
        "▁finds",
        -10.88662338256836
      ],
      [
        "▁beef",
        -10.887213706970215
      ],
      [
        "▁poked",
        -10.88779354095459
      ],
      [
        "▁bookshelf",
        -10.889331817626953
      ],
      [
        "▁mint",
        -10.890119552612305
      ],
      [
        "▁mist",
        -10.890506744384766
      ],
      [
        "▁amazement",
        -10.891098976135254
      ],
      [
        "ch",
        -10.891195297241211
      ],
      [
        "▁licks",
        -10.891968727111816
      ],
      [
        "▁birdcage",
        -10.893122673034668
      ],
      [
        "▁ringing",
        -10.893912315368652
      ],
      [
        "▁helper",
        -10.894776344299316
      ],
      [
        "▁calendar",
        -10.895150184631348
      ],
      [
        "▁However",
        -10.895925521850586
      ],
      [
        "▁symbol",
        -10.89598560333252
      ],
      [
        "▁experience",
        -10.896064758300781
      ],
      [
        "▁opera",
        -10.89718246459961
      ],
      [
        "And",
        -10.898850440979004
      ],
      [
        "▁pinch",
        -10.900761604309082
      ],
      [
        "▁squeezed",
        -10.901450157165527
      ],
      [
        "▁chairs",
        -10.90168285369873
      ],
      [
        "▁puzzles",
        -10.903717041015625
      ],
      [
        "▁apron",
        -10.903814315795898
      ],
      [
        "▁following",
        -10.90434741973877
      ],
      [
        "▁berry",
        -10.904584884643555
      ],
      [
        "▁blueberries",
        -10.904594421386719
      ],
      [
        "▁bookcase",
        -10.905863761901855
      ],
      [
        "▁muffin",
        -10.907563209533691
      ],
      [
        "▁cane",
        -10.907709121704102
      ],
      [
        "el",
        -10.909261703491211
      ],
      [
        "▁automobile",
        -10.909460067749023
      ],
      [
        "▁isn",
        -10.909794807434082
      ],
      [
        "▁begged",
        -10.911520957946777
      ],
      [
        "▁raise",
        -10.91392993927002
      ],
      [
        "▁Help",
        -10.914911270141602
      ],
      [
        "Sam",
        -10.915339469909668
      ],
      [
        "ter",
        -10.91538143157959
      ],
      [
        "achel",
        -10.915419578552246
      ],
      [
        "▁country",
        -10.915943145751953
      ],
      [
        "▁married",
        -10.918249130249023
      ],
      [
        "▁attach",
        -10.91829776763916
      ],
      [
        "▁Steve",
        -10.918437004089355
      ],
      [
        "▁ribbon",
        -10.919013977050781
      ],
      [
        "▁growled",
        -10.919447898864746
      ],
      [
        "▁rail",
        -10.919548034667969
      ],
      [
        "oe",
        -10.922041893005371
      ],
      [
        "▁blood",
        -10.922933578491211
      ],
      [
        "▁crash",
        -10.923234939575195
      ],
      [
        "▁load",
        -10.923237800598145
      ],
      [
        "▁waste",
        -10.92362117767334
      ],
      [
        "▁worms",
        -10.924099922180176
      ],
      [
        "▁structure",
        -10.925545692443848
      ],
      [
        "▁drain",
        -10.926069259643555
      ],
      [
        "▁immediately",
        -10.926069259643555
      ],
      [
        "▁novel",
        -10.926104545593262
      ],
      [
        "▁gym",
        -10.926592826843262
      ],
      [
        "▁improve",
        -10.926941871643066
      ],
      [
        "▁brain",
        -10.927642822265625
      ],
      [
        "▁ha",
        -10.9279203414917
      ],
      [
        "▁holiday",
        -10.928951263427734
      ],
      [
        "▁People",
        -10.929336547851562
      ],
      [
        "k",
        -10.929459571838379
      ],
      [
        "▁cliff",
        -10.930001258850098
      ],
      [
        "▁dictionary",
        -10.930264472961426
      ],
      [
        "▁uniform",
        -10.930596351623535
      ],
      [
        "▁crawling",
        -10.930935859680176
      ],
      [
        "▁warmth",
        -10.930968284606934
      ],
      [
        "▁Luckily",
        -10.931316375732422
      ],
      [
        "▁license",
        -10.93157958984375
      ],
      [
        "▁hate",
        -10.932095527648926
      ],
      [
        "▁shampoo",
        -10.933686256408691
      ],
      [
        "▁understanding",
        -10.934073448181152
      ],
      [
        "▁ignore",
        -10.935359954833984
      ],
      [
        "▁festival",
        -10.93553352355957
      ],
      [
        "▁yucky",
        -10.936326026916504
      ],
      [
        "▁screw",
        -10.939106941223145
      ],
      [
        "▁matches",
        -10.939339637756348
      ],
      [
        "▁pastry",
        -10.940315246582031
      ],
      [
        "▁relaxed",
        -10.942510604858398
      ],
      [
        "▁nation",
        -10.942957878112793
      ],
      [
        "▁wandered",
        -10.943036079406738
      ],
      [
        "▁airplane",
        -10.944289207458496
      ],
      [
        "▁Jo",
        -10.945672035217285
      ],
      [
        "▁steam",
        -10.947224617004395
      ],
      [
        "▁hurting",
        -10.947721481323242
      ],
      [
        "œNo",
        -10.948122024536133
      ],
      [
        "▁bathe",
        -10.948366165161133
      ],
      [
        "Did",
        -10.949153900146484
      ],
      [
        "▁pages",
        -10.94966983795166
      ],
      [
        "Because",
        -10.950423240661621
      ],
      [
        "▁bravely",
        -10.950949668884277
      ],
      [
        "▁Ollie",
        -10.950974464416504
      ],
      [
        "eady",
        -10.952872276306152
      ],
      [
        "▁Penny",
        -10.953125
      ],
      [
        "▁bathrobe",
        -10.953660011291504
      ],
      [
        "▁remind",
        -10.954384803771973
      ],
      [
        "▁alright",
        -10.95500659942627
      ],
      [
        "▁root",
        -10.956618309020996
      ],
      [
        "▁bury",
        -10.957444190979004
      ],
      [
        "▁shrink",
        -10.957804679870605
      ],
      [
        "▁breathe",
        -10.958468437194824
      ],
      [
        "ups",
        -10.959519386291504
      ],
      [
        "▁safety",
        -10.960152626037598
      ],
      [
        "▁fallen",
        -10.960577011108398
      ],
      [
        "▁below",
        -10.961491584777832
      ],
      [
        "atie",
        -10.96299934387207
      ],
      [
        "▁sparkling",
        -10.96340560913086
      ],
      [
        "ro",
        -10.965157508850098
      ],
      [
        "▁massage",
        -10.96529483795166
      ],
      [
        "▁law",
        -10.966046333312988
      ],
      [
        "▁fuel",
        -10.966111183166504
      ],
      [
        "▁refrigerator",
        -10.966111183166504
      ],
      [
        "▁tease",
        -10.966939926147461
      ],
      [
        "▁sandcastle",
        -10.967273712158203
      ],
      [
        "▁strawberries",
        -10.968838691711426
      ],
      [
        "▁skills",
        -10.969395637512207
      ],
      [
        "TMre",
        -10.970563888549805
      ],
      [
        "▁myself",
        -10.972395896911621
      ],
      [
        "▁oasis",
        -10.974590301513672
      ],
      [
        "▁laughter",
        -10.974788665771484
      ],
      [
        "▁whip",
        -10.974859237670898
      ],
      [
        "▁saving",
        -10.976240158081055
      ],
      [
        "▁ashtray",
        -10.980376243591309
      ],
      [
        "▁reaches",
        -10.980945587158203
      ],
      [
        "ur",
        -10.981019020080566
      ],
      [
        "▁rot",
        -10.9822998046875
      ],
      [
        "▁doors",
        -10.982816696166992
      ],
      [
        "▁buried",
        -10.983419418334961
      ],
      [
        "▁earlier",
        -10.984528541564941
      ],
      [
        "▁Snowy",
        -10.984818458557129
      ],
      [
        "▁beamed",
        -10.986236572265625
      ],
      [
        "▁shot",
        -10.987863540649414
      ],
      [
        "▁teaching",
        -10.989405632019043
      ],
      [
        "▁captain",
        -10.989535331726074
      ],
      [
        "▁Everyday",
        -10.989571571350098
      ],
      [
        "▁reverse",
        -10.98991870880127
      ],
      [
        "▁someday",
        -10.991907119750977
      ],
      [
        "Yuck",
        -10.992047309875488
      ],
      [
        "▁prepare",
        -10.992432594299316
      ],
      [
        "TMll",
        -10.992546081542969
      ],
      [
        "▁snapped",
        -10.992613792419434
      ],
      [
        "▁Joy",
        -10.993034362792969
      ],
      [
        "▁plates",
        -10.993035316467285
      ],
      [
        "▁ornament",
        -10.993151664733887
      ],
      [
        "▁harbor",
        -10.993725776672363
      ],
      [
        "▁received",
        -10.994990348815918
      ],
      [
        "▁pulling",
        -10.995293617248535
      ],
      [
        "▁bumped",
        -10.996954917907715
      ],
      [
        "▁tongue",
        -10.9973726272583
      ],
      [
        "▁enter",
        -10.998578071594238
      ],
      [
        "▁daisy",
        -10.99934196472168
      ],
      [
        "▁insisted",
        -10.999391555786133
      ],
      [
        "▁vanished",
        -10.999452590942383
      ],
      [
        "▁thumb",
        -10.99962329864502
      ],
      [
        "▁boot",
        -11.0001220703125
      ],
      [
        "▁infant",
        -11.000186920166016
      ],
      [
        "▁hearts",
        -11.00078010559082
      ],
      [
        "▁sparkle",
        -11.001510620117188
      ],
      [
        "▁spoil",
        -11.001679420471191
      ],
      [
        "▁permission",
        -11.002726554870605
      ],
      [
        "▁remove",
        -11.003216743469238
      ],
      [
        "▁blackboard",
        -11.00331974029541
      ],
      [
        "▁jail",
        -11.003576278686523
      ],
      [
        "▁settled",
        -11.003707885742188
      ],
      [
        "▁known",
        -11.00633716583252
      ],
      [
        "▁prevent",
        -11.008739471435547
      ],
      [
        "▁score",
        -11.008787155151367
      ],
      [
        "▁quiz",
        -11.009245872497559
      ],
      [
        "▁junk",
        -11.009815216064453
      ],
      [
        "▁remain",
        -11.01073169708252
      ],
      [
        "▁surrender",
        -11.011015892028809
      ],
      [
        "TM",
        -11.011346817016602
      ],
      [
        "▁Have",
        -11.012795448303223
      ],
      [
        "▁lemonade",
        -11.012948989868164
      ],
      [
        "la",
        -11.013434410095215
      ],
      [
        "▁decorations",
        -11.013456344604492
      ],
      [
        "▁Brown",
        -11.013778686523438
      ],
      [
        "▁F",
        -11.014039993286133
      ],
      [
        "▁succeed",
        -11.01587200164795
      ],
      [
        "▁scooped",
        -11.015952110290527
      ],
      [
        "▁heat",
        -11.01598072052002
      ],
      [
        "▁dried",
        -11.018386840820312
      ],
      [
        "▁spending",
        -11.018678665161133
      ],
      [
        "▁cuddled",
        -11.019096374511719
      ],
      [
        "▁scattered",
        -11.020278930664062
      ],
      [
        "▁wizard",
        -11.02183723449707
      ],
      [
        "▁yawned",
        -11.02229118347168
      ],
      [
        "▁socks",
        -11.022869110107422
      ],
      [
        "▁Buzz",
        -11.024408340454102
      ],
      [
        "ra",
        -11.025327682495117
      ],
      [
        "▁cheek",
        -11.026397705078125
      ],
      [
        "▁insect",
        -11.02814769744873
      ],
      [
        "▁superhero",
        -11.029025077819824
      ],
      [
        "▁waffle",
        -11.029608726501465
      ],
      [
        "▁pride",
        -11.029932975769043
      ],
      [
        "▁replace",
        -11.030630111694336
      ],
      [
        "▁encouraged",
        -11.0311861038208
      ],
      [
        "▁provide",
        -11.031793594360352
      ],
      [
        "▁whisper",
        -11.032051086425781
      ],
      [
        "▁snap",
        -11.032227516174316
      ],
      [
        "Sara",
        -11.032315254211426
      ],
      [
        "▁Spike",
        -11.032840728759766
      ],
      [
        "▁spots",
        -11.033824920654297
      ],
      [
        "▁destroyed",
        -11.033910751342773
      ],
      [
        "▁appreciate",
        -11.034415245056152
      ],
      [
        "▁jewels",
        -11.034895896911621
      ],
      [
        "▁taller",
        -11.035269737243652
      ],
      [
        "▁cartoon",
        -11.036358833312988
      ],
      [
        "▁hanger",
        -11.036521911621094
      ],
      [
        "▁sausage",
        -11.036649703979492
      ],
      [
        "▁camp",
        -11.038714408874512
      ],
      [
        "▁Poppy",
        -11.039071083068848
      ],
      [
        "▁praised",
        -11.040170669555664
      ],
      [
        "▁moments",
        -11.04037857055664
      ],
      [
        "▁dresses",
        -11.041096687316895
      ],
      [
        "▁press",
        -11.043670654296875
      ],
      [
        "▁Betsy",
        -11.043671607971191
      ],
      [
        "▁none",
        -11.04445743560791
      ],
      [
        "▁chirping",
        -11.044953346252441
      ],
      [
        "▁sneezed",
        -11.045073509216309
      ],
      [
        "▁patiently",
        -11.0465087890625
      ],
      [
        "▁buzzing",
        -11.046699523925781
      ],
      [
        "▁fastest",
        -11.047566413879395
      ],
      [
        "▁David",
        -11.048096656799316
      ],
      [
        "▁surprises",
        -11.048905372619629
      ],
      [
        "▁rabbits",
        -11.050444602966309
      ],
      [
        "▁supply",
        -11.051983833312988
      ],
      [
        "▁palm",
        -11.052244186401367
      ],
      [
        "▁dare",
        -11.052664756774902
      ],
      [
        "▁war",
        -11.055364608764648
      ],
      [
        "▁leak",
        -11.055553436279297
      ],
      [
        "▁chamber",
        -11.056408882141113
      ],
      [
        "▁universe",
        -11.057303428649902
      ],
      [
        "ic",
        -11.057735443115234
      ],
      [
        "▁struggling",
        -11.058198928833008
      ],
      [
        "▁deeper",
        -11.061079025268555
      ],
      [
        "▁warning",
        -11.061514854431152
      ],
      [
        "il",
        -11.061673164367676
      ],
      [
        "▁approached",
        -11.063021659851074
      ],
      [
        "▁believed",
        -11.063246726989746
      ],
      [
        "▁billboard",
        -11.063289642333984
      ],
      [
        "▁passport",
        -11.066232681274414
      ],
      [
        "▁cobweb",
        -11.0668363571167
      ],
      [
        "▁awe",
        -11.066944122314453
      ],
      [
        "▁panic",
        -11.067667007446289
      ],
      [
        "▁label",
        -11.068376541137695
      ],
      [
        "▁urge",
        -11.06937026977539
      ],
      [
        "▁destination",
        -11.07021713256836
      ],
      [
        "▁difference",
        -11.072637557983398
      ],
      [
        "▁wine",
        -11.072663307189941
      ],
      [
        "▁chores",
        -11.074386596679688
      ],
      [
        "▁Abigail",
        -11.075064659118652
      ],
      [
        "▁mitten",
        -11.075066566467285
      ],
      [
        "▁beans",
        -11.075516700744629
      ],
      [
        "▁lumber",
        -11.075672149658203
      ],
      [
        "▁poppy",
        -11.076587677001953
      ],
      [
        "▁hits",
        -11.077215194702148
      ],
      [
        "▁setting",
        -11.07858943939209
      ],
      [
        "Ok",
        -11.079111099243164
      ],
      [
        "▁restore",
        -11.079763412475586
      ],
      [
        "▁upstairs",
        -11.079936027526855
      ],
      [
        "▁mall",
        -11.080306053161621
      ],
      [
        "▁tide",
        -11.080547332763672
      ],
      [
        "▁solved",
        -11.081275939941406
      ],
      [
        "▁washing",
        -11.083803176879883
      ],
      [
        "▁worse",
        -11.083911895751953
      ],
      [
        "▁sits",
        -11.084916114807129
      ],
      [
        "▁ranch",
        -11.085138320922852
      ],
      [
        "▁examine",
        -11.086816787719727
      ],
      [
        "▁digging",
        -11.087299346923828
      ],
      [
        "▁thrilled",
        -11.087316513061523
      ],
      [
        "▁vacation",
        -11.090367317199707
      ],
      [
        "▁floating",
        -11.09245491027832
      ],
      [
        "▁teaspoon",
        -11.092528343200684
      ],
      [
        "▁remained",
        -11.09307861328125
      ],
      [
        "▁ideas",
        -11.093297958374023
      ],
      [
        "▁invitation",
        -11.093456268310547
      ],
      [
        "▁sparkles",
        -11.093713760375977
      ],
      [
        "Thanks",
        -11.094882011413574
      ],
      [
        "▁oranges",
        -11.09598445892334
      ],
      [
        "li",
        -11.096170425415039
      ],
      [
        "▁collection",
        -11.096590042114258
      ],
      [
        "▁twirl",
        -11.096693992614746
      ],
      [
        "▁weapon",
        -11.097336769104004
      ],
      [
        "Welcome",
        -11.097756385803223
      ],
      [
        "▁port",
        -11.0977783203125
      ],
      [
        "▁May",
        -11.09809398651123
      ],
      [
        "▁glowed",
        -11.098795890808105
      ],
      [
        "▁exercise",
        -11.098902702331543
      ],
      [
        "œThank",
        -11.099350929260254
      ],
      [
        "ad",
        -11.100140571594238
      ],
      [
        "▁grape",
        -11.10267162322998
      ],
      [
        "▁toes",
        -11.102751731872559
      ],
      [
        "▁twisted",
        -11.102810859680176
      ],
      [
        "▁repeat",
        -11.105425834655762
      ],
      [
        "▁row",
        -11.105425834655762
      ],
      [
        "▁pillows",
        -11.105687141418457
      ],
      [
        "▁neighborhood",
        -11.105907440185547
      ],
      [
        "▁Who",
        -11.106476783752441
      ],
      [
        "▁shooting",
        -11.108694076538086
      ],
      [
        "▁yield",
        -11.108908653259277
      ],
      [
        "▁thermometer",
        -11.109045028686523
      ],
      [
        "▁sneak",
        -11.110559463500977
      ],
      [
        "▁surrounded",
        -11.110616683959961
      ],
      [
        "▁stadium",
        -11.111247062683105
      ],
      [
        "▁delay",
        -11.113862991333008
      ],
      [
        "▁sip",
        -11.11482048034668
      ],
      [
        "▁itch",
        -11.115689277648926
      ],
      [
        "▁floated",
        -11.116188049316406
      ],
      [
        "▁gust",
        -11.116945266723633
      ],
      [
        "▁jazz",
        -11.117247581481934
      ],
      [
        "▁fixing",
        -11.11868953704834
      ],
      [
        "is",
        -11.119844436645508
      ],
      [
        "▁weeks",
        -11.120290756225586
      ],
      [
        "▁hurricane",
        -11.120421409606934
      ],
      [
        "emember",
        -11.120738983154297
      ],
      [
        "▁paused",
        -11.123048782348633
      ],
      [
        "▁marbles",
        -11.123091697692871
      ],
      [
        "nfortunately",
        -11.124561309814453
      ],
      [
        "▁actually",
        -11.12488079071045
      ],
      [
        "▁batter",
        -11.125702857971191
      ],
      [
        "▁cherry",
        -11.125838279724121
      ],
      [
        "▁grinned",
        -11.126479148864746
      ],
      [
        "▁wisdom",
        -11.127117156982422
      ],
      [
        "▁parts",
        -11.128554344177246
      ],
      [
        "▁supposed",
        -11.129364013671875
      ],
      [
        "▁Liz",
        -11.129861831665039
      ],
      [
        "▁Cat",
        -11.129937171936035
      ],
      [
        "▁university",
        -11.130964279174805
      ],
      [
        "▁stomach",
        -11.131285667419434
      ],
      [
        "▁keeper",
        -11.131607055664062
      ],
      [
        "▁surf",
        -11.131662368774414
      ],
      [
        "▁dur",
        -11.132601737976074
      ],
      [
        "▁grey",
        -11.133214950561523
      ],
      [
        "▁neighbour",
        -11.136252403259277
      ],
      [
        "▁future",
        -11.137085914611816
      ],
      [
        "▁tour",
        -11.137639999389648
      ],
      [
        "▁sprinkles",
        -11.139455795288086
      ],
      [
        "▁observe",
        -11.140472412109375
      ],
      [
        "▁sunrise",
        -11.141295433044434
      ],
      [
        "▁rush",
        -11.142112731933594
      ],
      [
        "▁accident",
        -11.142350196838379
      ],
      [
        "▁rhythm",
        -11.143569946289062
      ],
      [
        "▁measured",
        -11.14410400390625
      ],
      [
        "oom",
        -11.1441068649292
      ],
      [
        "▁complain",
        -11.144715309143066
      ],
      [
        "▁c",
        -11.145347595214844
      ],
      [
        "▁decision",
        -11.14605712890625
      ],
      [
        "▁melted",
        -11.146803855895996
      ],
      [
        "▁meowed",
        -11.14759349822998
      ],
      [
        "▁climbs",
        -11.149696350097656
      ],
      [
        "▁memory",
        -11.150423049926758
      ],
      [
        "▁shed",
        -11.152408599853516
      ],
      [
        "Mmm",
        -11.152873039245605
      ],
      [
        "▁lily",
        -11.153703689575195
      ],
      [
        "▁destroy",
        -11.154208183288574
      ],
      [
        "▁discovery",
        -11.15455436706543
      ],
      [
        "▁possible",
        -11.154694557189941
      ],
      [
        "▁paints",
        -11.15572452545166
      ],
      [
        "▁unite",
        -11.156164169311523
      ],
      [
        "▁beside",
        -11.156302452087402
      ],
      [
        "▁G",
        -11.156396865844727
      ],
      [
        "▁mailman",
        -11.158675193786621
      ],
      [
        "▁chewed",
        -11.15919017791748
      ],
      [
        "▁luggage",
        -11.160627365112305
      ],
      [
        "▁chirped",
        -11.162383079528809
      ],
      [
        "Ha",
        -11.162980079650879
      ],
      [
        "▁cartoons",
        -11.165252685546875
      ],
      [
        "▁hills",
        -11.1656494140625
      ],
      [
        "▁curled",
        -11.166326522827148
      ],
      [
        "▁colour",
        -11.166366577148438
      ],
      [
        "▁tomatoes",
        -11.16866683959961
      ],
      [
        "▁x",
        -11.169046401977539
      ],
      [
        "▁peer",
        -11.169336318969727
      ],
      [
        "as",
        -11.170344352722168
      ],
      [
        "▁folded",
        -11.17068862915039
      ],
      [
        "▁sunlight",
        -11.17071533203125
      ],
      [
        "emy",
        -11.171271324157715
      ],
      [
        "▁petted",
        -11.173016548156738
      ],
      [
        "▁safari",
        -11.173279762268066
      ],
      [
        "▁manage",
        -11.173768997192383
      ],
      [
        "▁shiver",
        -11.173803329467773
      ],
      [
        "▁watered",
        -11.175472259521484
      ],
      [
        "▁continue",
        -11.175789833068848
      ],
      [
        "▁style",
        -11.177644729614258
      ],
      [
        "▁twigs",
        -11.17846393585205
      ],
      [
        "▁jogging",
        -11.179338455200195
      ],
      [
        "▁Someone",
        -11.17971134185791
      ],
      [
        "▁sliding",
        -11.180917739868164
      ],
      [
        "▁brings",
        -11.183035850524902
      ],
      [
        "▁slice",
        -11.183540344238281
      ],
      [
        "▁receive",
        -11.18388557434082
      ],
      [
        "▁scratch",
        -11.18577766418457
      ],
      [
        "▁vehicle",
        -11.185928344726562
      ],
      [
        "▁price",
        -11.18745231628418
      ],
      [
        "▁earthquake",
        -11.18779182434082
      ],
      [
        "▁collecting",
        -11.18819808959961
      ],
      [
        "▁Sunny",
        -11.188474655151367
      ],
      [
        "▁laid",
        -11.189155578613281
      ],
      [
        "▁float",
        -11.191133499145508
      ],
      [
        "▁bites",
        -11.191783905029297
      ],
      [
        "▁Julie",
        -11.193588256835938
      ],
      [
        "▁admiring",
        -11.19495677947998
      ],
      [
        "▁poison",
        -11.195637702941895
      ],
      [
        "▁ordered",
        -11.195795059204102
      ],
      [
        "ce",
        -11.1958646774292
      ],
      [
        "ncle",
        -11.196327209472656
      ],
      [
        "▁potatoes",
        -11.19672966003418
      ],
      [
        "▁P",
        -11.196946144104004
      ],
      [
        "▁Sunday",
        -11.198387145996094
      ],
      [
        "▁Nina",
        -11.19873332977295
      ],
      [
        "▁watches",
        -11.198763847351074
      ],
      [
        "▁copper",
        -11.199092864990234
      ],
      [
        "▁mineral",
        -11.19969654083252
      ],
      [
        "▁firework",
        -11.199747085571289
      ],
      [
        "at",
        -11.200212478637695
      ],
      [
        "▁tracks",
        -11.201723098754883
      ],
      [
        "▁marching",
        -11.203189849853516
      ],
      [
        "▁kindly",
        -11.204345703125
      ],
      [
        "▁gain",
        -11.20437240600586
      ],
      [
        "▁mountains",
        -11.204392433166504
      ],
      [
        "▁torn",
        -11.20494556427002
      ],
      [
        "▁p",
        -11.206399917602539
      ],
      [
        "▁gifts",
        -11.208168029785156
      ],
      [
        "▁Beth",
        -11.20981216430664
      ],
      [
        "▁patterns",
        -11.210076332092285
      ],
      [
        "▁gloves",
        -11.21009349822998
      ],
      [
        "▁raised",
        -11.210371017456055
      ],
      [
        "▁problems",
        -11.211453437805176
      ],
      [
        "▁overjoyed",
        -11.212225914001465
      ],
      [
        "▁zipped",
        -11.212244033813477
      ],
      [
        "▁attached",
        -11.21321964263916
      ],
      [
        "ion",
        -11.214454650878906
      ],
      [
        "▁officer",
        -11.214900970458984
      ],
      [
        "▁beat",
        -11.215316772460938
      ],
      [
        "▁gotten",
        -11.215374946594238
      ],
      [
        "œWe",
        -11.215826988220215
      ],
      [
        "▁Moral",
        -11.216414451599121
      ],
      [
        "ck",
        -11.216621398925781
      ],
      [
        "▁soldiers",
        -11.217036247253418
      ],
      [
        "▁art",
        -11.21762752532959
      ],
      [
        "ow",
        -11.217878341674805
      ],
      [
        "▁tip",
        -11.217881202697754
      ],
      [
        "▁Chloe",
        -11.21851634979248
      ],
      [
        "▁equipment",
        -11.219568252563477
      ],
      [
        "▁eagle",
        -11.220270156860352
      ],
      [
        "▁skipping",
        -11.222044944763184
      ],
      [
        "▁elephants",
        -11.22226333618164
      ],
      [
        "▁pigs",
        -11.222674369812012
      ],
      [
        "▁Sharing",
        -11.223382949829102
      ],
      [
        "▁Thomas",
        -11.223860740661621
      ],
      [
        "▁ash",
        -11.224663734436035
      ],
      [
        "▁signs",
        -11.224740028381348
      ],
      [
        "▁disagreed",
        -11.225289344787598
      ],
      [
        "an",
        -11.22535514831543
      ],
      [
        "▁rooms",
        -11.22778606414795
      ],
      [
        "▁request",
        -11.227804183959961
      ],
      [
        "▁happiest",
        -11.22979736328125
      ],
      [
        "▁wooden",
        -11.230631828308105
      ],
      [
        "am",
        -11.232298851013184
      ],
      [
        "▁Josh",
        -11.2337064743042
      ],
      [
        "▁event",
        -11.235219955444336
      ],
      [
        "▁company",
        -11.236913681030273
      ],
      [
        "▁clearing",
        -11.237106323242188
      ],
      [
        "▁weren",
        -11.237223625183105
      ],
      [
        "▁burning",
        -11.239089965820312
      ],
      [
        "▁strangers",
        -11.239102363586426
      ],
      [
        "▁sidewalk",
        -11.239416122436523
      ],
[...]
